#version: 0.2
다 .
▁ 이
다. 

▁ 있
▁ 그
으 로
▁ 사
에 서
▁ 대
▁ 1
▁ 수
▁ 것
▁ 아
▁ 하
▁ 가
▁ 지
▁ 한
▁ 2
▁ 전
▁ 기
▁ 정
▁ 시
▁ 자
▁ 보
▁ 나
▁ 다
하 는
▁ 일
▁ 주
▁ 제
. 

하 고
▁ 어
▁ 인
▁ 경
▁ 중
▁ 등
▁ 모
▁ "
▁ 부
▁ 위
▁ 공
▁ 상
▁ 않
▁ 때
▁ 없
▁ 고
▁ 마
▁ 말
▁ 내
▁ (
▁ 의
▁ 오
▁ 유
▁있 는
▁ 여
▁ 비
▁ 소
▁ 해
지 만
▁ 조
0 0
▁것 이
▁ 관
▁ 국
▁ 생
▁ 3
다 는
▁ 미
▁ 우
▁ 무
▁ 거
▁ 되
▁ 만
▁ '
▁ 바
▁ 신
▁ 개
에 게
들 이
▁ 안
▁ 문
했 다.

▁ 연
▁ 동
라 고
습 니
다 고
▁ 서
▁ 선
▁ 발
▁ 세
▁ 구
▁ 방
었 다.
▁ 최
▁ 도
▁ 예
▁ 김
▁ 성
▁ 스
▁ 장
▁ 영
▁있 다.
에 는
▁ )
적 인
했 다.
면 서
▁ 같
이 다.
▁사 람
▁ 당
▁ 통
고 ,
하 게
까 지
▁ 강
▁ 불
▁ 결
▁ 원
▁ 진
▁ 실
▁ 후
▁ 또
라 는
▁2 0
▁ 들
▁ 현
적 으로
▁ 더
▁ 4
▁1 9
▁ 많
▁ 남
▁ 알
▁아 니
▁ 분
▁ 반
▁ 따
▁ 노
▁ 5
▁때 문
▁ 교
▁ 특
는 데
▁ 저
▁ 차
들 은
부 터
▁대 한
▁ 계
▁ 받
▁ 적
▁ 역
하 여
▁있 다.

▁ #
▁그 러
▁ 물
▁ 재
▁ 단
해 서
▁ 작
▁ 두
하 기
▁우 리
리 고
▁ 못
" 

. .
▁ 할
이 다.

▁ 입
▁ 추
▁ 감
▁ 매
▁ 과
▁ 요
▁ 배
며 ,
요 .
▁20 1
▁ 건
들 의
▁생 각
▁ -
▁경 우
▁ 파
▁ 된
▁ 출
▁ 설
▁ 좋
▁ 박
▁ 6
▁ 게
▁ 달
▁ 포
었 다.

다 "
▁ 확
니 다.
에서 는
▁하 는
▁ 회
▁자 신
▁ 참
▁ 피
▁ 네
▁ 외
▁ 행
하 지
한 다.
▁ 화
▁ 명
▁ 살
▁ 평
▁ 올
▁ 함
▁ 프
이 나
들 을
습니 다.
▁ 집
습니 다.

▁것 으로
▁ 새
▁때문 에
▁ 열
▁ 본
▁ 점
▁같 은
▁ 초
▁ :
기 를
▁ 잘
▁ 데
▁들 어
▁ 학
▁ 직
▁한 국
▁ 7
▁ 양
▁ 필
▁것 은
▁1 0
▁문 제
▁2 00
▁ 목
▁ 속
▁그 런
▁ 타
▁다 른
▁사 용
하 였
▁ 에
▁ 했
대 로
▁ 처
▁위 해
▁ 심
▁ 간
▁ 민
▁ 변
▁ 8
에 도
▁그 리고
▁따 라
e r
리 는
▁하 나
▁ 앞
▁ 돌
지 는
▁ 운
) 

▁ 종
▁ 카
▁ 각
▁ S
렇 게
▁ 드
▁ 북
하 면
▁ 청
▁것 을
▁ 음
요 .

▁ 9
▁ 근
▁ 뒤
리 를
▁ 손
▁ 걸
▁ 크
이 라
▁ 맞
▁사 실
보 다
▁ 표
▁아 이
▁ 높
▁ 산
i n
▁함 께
▁ 치
이 라고
▁ 활
▁ 호
▁ 리
니 다.

▁ 및
▁한 다.
▁지 난
▁ 총
▁ 약
▁ 언
▁정 도
▁ 밝
▁ 형
▁ 증
▁ 편
▁ 합
다 면
▁미 국
▁시 작
▁있 어
되 는
o n
레 이
▁이 후
▁ 번
▁이 상
▁그러 나
▁ 투
다 가
처 럼
기 도
▁ 임
▁가 능
▁있 었
a n
▁ 판
되 어
기 에
▁ 금
▁ 독
▁ 눈
▁것이 다.
▁이 런
통 령
▁하 지만
▁ 체
▁지 금
▁통 해
지 고
▁만 들
▁가 장
▁ 군
▁ C
▁ 버
▁ 로
▁ 법
▁일 본
▁ A
▁ 검
▁대 통령
▁않 는
▁그 는
▁그 래
거 나
도 록
자 는
▁있 으
▁ 코
니 까
▁ 얼
자 가
스 트
▁ 날
▁ 라
▁하 고
? 

사 를
▁없 는
▁필 요
▁ 죽
▁ 누
▁ 태
▁않 았
지 를
▁다 시
▁ 순
▁ 먹
▁ 너
▁ 삼
기 가
지만 ,
한 다.

0 년
해 야
주 의
▁ M
▁ 쓰
▁ 환
▁관 련
▁ 채
▁ 힘
▁ 찾
▁ 충
▁지 역
다" 고
▁세 계
▁모 두
▁정 부
▁대 해
▁많 은
▁ 메
▁시 간
장 을
▁ 줄
▁ 토
▁ 큰
▁ 애
이 라는
▁대 표
▁사 회
▁ 친
▁모 든
) ,
▁1 2
▁ 광
▁ T
▁ 복
▁ 식
성 을
▁아니 라
력 을
▁서 울
▁사 이
▁ 완
e n
리 가
▁관 계
▁ 책
▁ 취
▁ 존
▁ 천
▁중 국
▁ 권
▁상 황
▁ 느
o r
▁ 논
▁ 창
이 는
▁다 음
▁위 한
▁이 용
기 는
▁ 준
▁ 백
▁ 절
▁ 야
들 에게
▁) 

하 면서
장 은
▁ 끝
▁또 한
a t
▁많 이
▁현 재
하 며
▁ 넘
▁ 담
▁ 길
성 이
▁ 온
▁ 항
▁ 규
▁이 어
▁1 1
▁ 될
a r
▁그 것
이 고
▁이 번
▁ 승
▁있 을
▁ 곳
이 었
으 나
▁말 했다.

▁ 허
▁모 습
▁ 막
▁ 갖
▁어 떤
▁ 병
학 교
으 면
▁ 볼
▁ P
▁이 제
▁프 로
▁ 잡
▁의 원
▁국 민
▁특 히
였 다.
위 원
▁ 용
▁ 좀
▁ 엄
▁ ,
▁ 뭐
▁ B
a l
▁ 은
▁여 러
▁나 는
▁ 패
자 의
▁ 싶
. "

는데 ,
▁ 협
▁그 렇
▁ 업
▁정 치
가 는
으 며
정 을
▁ 효
▁ 베
▁있 었다.
▁마 음
▁ 황
상 을
로 운
▁이 렇게
▁ 질
▁밝 혔
▁ 디
▁자신 의
▁것이 다.

에서 도
▁ 왕
▁국 가
▁나 타
장 이
▁당 시
았 다.
▁ L
▁ 벌
▁등 을
▁ 레
▁이 야
▁아 무
화 를
▁ 갈
▁경 제
사 가
되 고
▁네 .

e s
인 이
▁ 철
하 다.
▁바 로
▁중 요
▁이 미
▁이 름
▁ 난
회 의
▁ I
▁ 향
▁북 한
▁1 8
▁연 구
▁나 오
▁1 5
▁19 9
이 지
▁ 0
▁ 빠
▁ 폭
▁ 트
▁ D
으 며,
▁ 브
▁내 용
▁돌 아
▁진 행
▁결 과
▁후 보
▁인 간
1 9
라 도
▁ 몸
▁그 의
들 과
▁보 고
▁이 유
어 나
▁ 머
▁ 커
어 서
▁ 잠
▁공 격
t h
▁ 플
▁처 음
▁한 다.

되 었
▁ 글
시 키
▁ K
▁ 했다.
▁ 별
▁ 떠
시 아
▁의 미
입 니다.
▁너 무
.. .
▁설 명
▁ 와
나 라
자 를
00 0
▁ 왜
▁그래 서
▁ 접
▁수 도
▁않 고
8 년
▁ 즉
▁이 러
▁그 녀
▁되 는
하고 ,
▁ 테
리 아
▁된 다.
▁ 늘
▁ 떨
하였 다.
▁어 떻
▁ 홍
▁계 속
▁ 첫
5 년
력 이
7 년
▁보 면
그 램
▁기 업
했 던
▁ 농
▁ F
리 스
▁내 가
▁게 임
▁지 원
▁ 캐
▁존 재
▁ 듯
▁있 다는
) 의
가 지
▁아 닌
▁ 귀
데 ,
▁같 이
▁보 여
▁어떻 게
▁물 론
사 는
므 로
▁기 술
▁상 태
▁부 분
6 년
▁좋 은
▁동 안
▁ 극
▁가 지
▁사 업
▁ 몰
이 었다.
▁않 은
인 의
기 로
▁교 육
▁이 를
▁등 장
▁ G
이 트
9 년
된 다.
▁ 얻
▁오 늘
s t
▁기 록
사 의
4 년
▁3 0
스 를
▁방 법
▁결 국
▁ 뿐
르 는
! 

리 에
식 을
서 는
▁등 의
▁ .

▁ 몇
▁어 느
▁ 키
부 분
어 진
? "

▁이러 한
▁사 건
▁ 면
시 간
i c
▁ E
▁일 반
▁ 둘
▁받 아
▁자 기
도 를
제 로
▁다 양
2 0
▁ 능
▁사 랑
2 년
▁정 보
3 년
▁ 측
▁ 혼
였 다.

되 었다.
▁새 로운
▁ R
▁되 어
▁활 동
지 가
머 니
▁역 시
▁ 돈
▁ 놓
▁알 려
▁ 악
▁찾 아
▁ 윤
▁문 화
▁ 클
주 는
▁계 획
▁국 내
▁이 에
밖 에
▁없 다.
▁영 화
▁그 렇게
▁사람 이
▁이 것
▁이 날
- -
▁그런 데
지 도
▁ 축
▁발 생
▁없 이
▁1 6
이 가
i t
▁작 품
▁이 루
대 의
ᄏ ᄏ
입 니다.

원 을
▁가 지고
▁또 는
▁최 고
▁개 발
▁ 했다.

▁직 접
▁밝혔 다.

▁것 도
▁ 먼
▁최 근
▁여 성
▁ 얘
▁ 밀
▁여 기
스 타
▁ 씨
▁일 부
▁ N
▁ H
▁ 범
1 년
다" 며
▁ 급
대 를
된 다.

▁주 장
▁민 주
▁결 정
위 를
▁대 해서
르 면
▁ 낮
▁포 함
▁예 .

▁매 우
▁ 페
▁대 상
치 를
▁등 이
▁ 송
~ 

▁만들 어
▁효 과
▁ 뜻
운 데
▁자 체
▁평 가
려 고
▁있 다고
▁ 팔
인 은
▁일 이
▁전 문
▁영 향
▁ 침
도 가
스 의
▁추 가
시 에
▁ 탄
음 을
▁전 체
국 의
▁1 7
▁대 부분
▁개 인
▁있 다
▁말 을
인 지
▁1 3
라 이
▁이 해
▁ 월
▁ 골
없 이
l e
▁방 송
▁자 유
▁ 육
드 는
로 서
▁하 지
▁확 인
▁조 선
▁1 4
▁ 싸
r e
정 이
▁지 나
▁좋 아
▁ 탈
들 도
▁운 영
스 로
▁구 성
▁정 말
▁ 풀
▁중 심
▁ 희
▁ 맛
▁아 직
▁상 당
▁되 었
▁어 려
원 이
i on
▁성 공
스 터
▁위 해서
▁시 장
▁ *
졌 다.
▁거 의
i s
▁ 블
▁ 울
▁ 놀
랜 드
수 가
▁ 핵
전 히
명 을
▁참 여
▁해 당
▁이 는
▁제 공
. 1
▁가 운데
▁무 엇
▁얼 마
▁상 대
▁보 인
▁요 구
▁ 뉴
▁ 터
▁국 제
도 로
치 는
스 는
▁다양 한
▁발 표
하 겠
▁ 붙
▁인 터
▁나 온
원 의
▁ 루
▁ 히
명 이
▁한 편
대 한
▁19 8
▁ 풍
▁기 준
▁피 해
았 다.

스 가
▁아 버
▁조 금
▁더 욱
▁ 쉽
▁나 라
▁정 책
수 를
▁얼 굴
인 데
마 다
회 를
▁예 정
o u
▁기 본
▁학 생
▁수 준
의 를
▁ 맡
▁높 은
▁강 조
) 에
▁ 며
) 을
▁ 깨
▁ W
▁ 팀
▁증 가
하 자
인 을
전 에
o m
전 을
▁따 르면
나 는
동 을
상 이
▁역 사
▁친 구
▁1 00
▁ 왔
▁서 비
▁ 암
▁자 연
제 를
되 지
▁생 산
▁관 심
▁ 삶
▁지 방
▁ 됐
▁ 폐
▁ 응
▁떨 어
▁ /
기 의
▁다 만
▁제 품
e l
▁ 혹
▁올 라
▁크 게
인 가
▁역 할
로 는
▁ o
▁ 을
▁않 을
▁먼 저
기 업
▁학 교
▁대 학
▁따라 서
▁살 아
▁정 신
▁생 활
) 이
장 의
지 막
▁의 해
▁준 비
적 이
물 을
려 는
▁" 그
▁ 헤
대 에
▁ 뛰
▁서 로
▁2 5
▁선 거
▁중요 한
▁되 었다.
이 를
▁사람 들이
동 안
▁ 휴
▁선 택
거 리
▁알 고
다 

▁판 매
▁없 었
in g
▁된 다.

▁말 이
▁그 냥
▁하 면
▁있 고
▁표 현
있 는
▁과 정
▁경 기
명 의
▁ th
a m
정 한
점 을
▁당 신
수 는
▁ 봉
시 는
" 이라고
▁유 지
c h
o l
문 을
리 의
▁내 려
▁있 던
과 의
임 을
▁마 지막
▁ 믿
▁ O
▁모습 을
했 다고
하 다.

스 템
▁가 족
. 0
으로 써
) 는
▁ 갑
부 는
▁조 사
▁ 즐
▁현 실
1 0
▁해 야
위원 회
졌 다.

▁ 긴
요 

▁있 습니다.
▁ 넣
) 를
대 표
▁경 찰
▁현 대
자 로
▁만 나
렸 다.
▁ 석
▁분 석
▁과 거
▁ p
▁ 러
안 을
케 이
▁ 듣
▁ 격
▁모 르
아 서
▁기 능
▁마 련
선 을
▁투 자
▁대 신
요 ?
▁국 회
▁드 러
▁지난 해
▁ 읽
상 의
▁ 압
한 다는
▁이야 기
도 의
▁전 쟁
이 며
▁ `
▁고 려
e d
▁자신 이
▁만 큼
▁주 요
▁해 서
▁관 리
▁해 결
▁지 적
▁올 해
▁특 별
▁발 견
▁ 움
▁강 화
부 를
▁정도 로
▁하 루
▁스 타
▁조 직
으로 는
▁ 쪽
▁아 주
▁ 를
▁ .
▁ 흔
▁도 시
사 업
▁바 람
계 를
▁비 롯
▁추 진
▁그 가
▁그 대로
리 지
▁ 끌
▁어 디
로 부터
▁기 존
▁일 을
▁제 작
는 다.
▁사 진
어 난
권 을
▁공 동
▁ 밤
. 5
장 에서
는 지
▁o f
장 에
▁달 리
▁프 랑
▁가 격
요 ?

죠 .
▁인 물
▁환 경
▁우리 가
▁변 화
i l
릭 터
. 2
▁때문 이다.
▁ 숨
▁있 도록
▁공 개
▁ 웃
▁ 빨
▁있어 서
내 는
자 들이
▁있 었다.

어 가
▁3 월
▁위 치
▁어 린
▁ 는
e t
▁5 0
대 가
▁있는 데
▁경 험
트 를
죠 .

하였 다.

▁누 구
움 을
▁ 돼
▁ 망
▁우리 는
▁ 엔
했 습니다.

센 터
▁ 곧
▁비 판
▁ 답
▁만 든
▁없 어
▁형 태
▁적 용
합 니다.
an d
▁경 쟁
으로 서
▁캐 릭터
▁자 동
▁인 정
▁2 1
기 관
서 를
▁전 투
▁4 월
이 어
▁문제 가
▁ 궁
▁인 해
와 의
▁ U
▁대한 민
▁가 진
자 인
하 다
▁ 견
▁사람 은
_ _
식 이
원 은
▁ 깊
a s
부 의
▁ ~
: 

▁어 ~
▁사 고
더 라도
▁어 머니
▁노 동
도 ,
들 에
▁전 에
수 의
▁제 가
) 은
▁않았 다.
▁ 워
하 거나
▁ 퍼
만 원
▁예 상
하 던
사 에
▁ 잔
▁" 이
▁나 왔
로 ,
▁관 한
▁구 조
▁ V
▁갖 고
▁ 겨
▁프로 그램
▁있 습니다.

▁활 용
부 가
▁지 속
▁비 슷
금 을
되 었다.

▁비 교
B S
▁수 가
▁이 동
문 화
시 켜
히 려
▁제 대로
리 즈
보 다는
▁ J
▁아 래
감 을
지 의
▁때 는
▁2 4
▁12 월
만 큼
▁의 견
▁6 월
▁판 단
▁ 꿈
▁주 인
▁중 앙
▁있으 며,
이 스
▁19 7
▁전 국
▁ 슬
지 에
▁자 리
느 냐
▁움 직
▁5 월
▁고 객
▁부 산
▁하 여
▁10 월
▁주 변
▁앞 으로
▁오 히려
▁7 월
▁ 헌
▁가 까
연 구
▁한 번
▁ 착
▁정 상
▁9 월
세 를
▁작 은
잖 아
▁음 악
▁ 술
르 게
▁독 일
▁ s
▁각 각
▁않 아
▁ 좌
▁알 아
▁발 전
▁성 장
▁ [
▁ 흐
▁못 한
▁th e
제 가
▁치 료
▁ 슈
에서 의
지 역
스 러
▁여 자
▁건 강
▁오 후
▁방 문
▁플 레이
가 를
▁실 제로
) 가
▁해 도
▁소 비
▁ 덕
오 는
▁배 우
▁8 월
▁ t
▁있 기
도 는
▁말 씀
중 에
▁이 라고
이 기
어 야
▁있 게
으 니
' 을
▁받 고
▁시 즌
▁그 림
자 ,
▁유 명
▁기 대
▁산 업
( 1
▁나 가
▁기 억
▁ 땅
▁이 전
▁기 간
하기 도
됐 다.

가 가
드 를
▁스 스로
▁운 동
▁ 봐
▁ 쿠
▁ 칼
니 다
▁장 관
▁무 슨
▁불 가
▁동 시에
▁화 자
과 는
▁2 2
▁들어 가
* *
▁영 국
▁오 는
어 요.
▁1 월
▁ ...
이 터
▁전 혀
▁받 은
▁제 1
▁유 럽
스 럽
▁저 는
▁언 급
▁이 와
으로 ,
▁설 치
▁분 명
h e
▁분 야
▁선 수
▁아니 다.
▁ 홈
▁방 식
▁ 콘
이 란
면 ,
소 를
▁되 고
했 을
▁ 빈
▁ 벗
▁그 리
▁행 정
교 육
▁2 3
▁위 원
▁위 험
▁미 래
▁영향 을
까 ?
▁등 에
▁순 간
! !
▁ 멀
▁전 망
▁네 .
▁제 외
a c
▁전 략
r o
▁그 때
같 은
▁외 국
▁목 표
▁행 동
▁결 혼
하 지만
▁부 족
▁출 신
▁ d
치 가
▁경우 가
▁ 곡
▁삼 성
▁열 린
보 고
▁잘 못
▁한 다는
▁ 앉
▁ 섬
▁ m
▁번 째
등 학교
한 테
▁어 렵
▁시 절
▁모 양
어 를
▁필요 한
- 1
▁최 대
▁공 식
▁ 녹
▁시 스템
▁감 독
▁일 단
▁ 엘
▁노 래
지 지
▁ 빌
▁시 민
▁노 력
▁주 로
▁차 지
▁규 모
라 며
▁ 숙
▁지 도
▁11 월
▁적 극
▁ 색
▁4 0
▁ 딸
2 00
▁언 론
상 에
▁ 묘
▁ 욕
▁사 라
▁보 내
개 를
억 원
▁라 이
자 와
▁ 잃
▁ 니
더 니
▁있 고,
이 에
▁ 년
▁ 티
부 에
했 고,
▁우 선
▁ 레이
▁마 을
▁비 해
리 로
▁얘 기
▁청 와
▁ 라고
개 월
지 ,
▁없 었다.
일 에
▁혹 은
▁참 고
▁관계 자는
▁목 소
▁2 월
▁정 확
어 도
▁가 져
이 며,
▁충 분
▁마 찬
▁주 는
▁ 팬
▁ 퇴
en t
▁인터 넷
▁ 꾸
r i
개 의
사 와
▁해 외
하 며,
▁안 전
르 고
성 과
▁언 제
▁민주 당
사 회
▁소 개
▁엄 마
▁ 빼
▁가 는
대 는
▁마찬 가지
' 를
▁ 괴
▁역할 을
▁과 학
▁여 행
거 든
장 ,
▁않는 다.
물 이
▁보 호
▁ c
▁ 품
▁최 초
운 동
▁제 시
▁앞 서
자 들은
▁금 융
업 을
했 다는
3 0
관 계
▁부 모
이 자
정 은
▁선 생
▁나 서
▁ 찬
▁ 갔
간 의
성 의
진 :
▁19 6
격 을
한 다고
▁사 망
▁아 마
▁사실 을
같 이
▁ 묻
우 는
▁검 찰
▁기 다
만 이
화 가
▁그 ~
▁실 시
치 고
▁지 지
▁가능 성이
▁ 꼭
리 카
▁자 주
에 선
스 크
라 인
무 를
▁집 중
0년 대
▁나 와
▁의원 은
▁적 이
성 은
으나 ,
▁능 력
▁느 낌
▁ 낙
▁바 라
▁엄 청
지 로
▁이루 어
으로 부터
기 술
▁얼마 나
▁ 찍
▁원 래
▁반 대
하 도록
▁시 리즈
▁ 혁
▁ 졸
▁이 게
▁러 시아
▁ 젊
▁ f
하 다는
▁당 연
▁있 지만
▁그것 은
▁ 옆
▁ 쓸
보 는
▁방 향
자 기
아 가
점 이
▁있으 며
▁연 결
▁확 대
▁되 면
▁자 료
▁것이 라고
▁힘 들
움 이
▁보 는
▁기 자
▁주 민
났 다.
위 에
▁인 사
▁쉽 게
5 0
▁특 징
▁두 고
▁2 7
▁ 염
▁2 6
▁근 데
▁반 응
디 오
▁나오 는
체 를
▁ 쉬
▁공 연
▁모 델
▁ 빛
▁진 짜
▁2 8
준 :
▁ 익
▁ 컨
▁전 통
▁상 승
민 주
시키 는
▁단 순
▁ +
▁상당 히
▁문제 를
▁속 에서
디 어
▁사람 들은
▁보 통
▁분 위
▁강 력
u n
한 다
u s
원 에
▁실 제
하 다고
비 를
▁주인 공
▁우리 나라
▁경 영
▁이 때
▁ 촉
▁못 하고
라 마
▁따 른
▁ b
사 로
▁시간 이
주 :
▁서비 스
▁ 솔
▁자 세
▁ 흥
었 던
구 를
▁ 던
▁ 억
▁책 임
▁보 이
▁받 는
성 에
. 3
▁보 도
가 의
▁ 죄
▁ 훈
a d
▁아 침
▁ 틀
▁한 다
만 을
정 :
라 .
▁대통령 은
체 가
▁대한민 국
▁남 아
해 진
▁논 의
▁ 굉
▁상 품
▁ 흘
였 던
▁건 설
▁있었 던
▁소 설
▁등 으로
▁오 래
▁제 2
S T
▁소 속
▁ 꽃
▁ 맥
▁일 어나
▁ 펼
▁ 써
▁공 간
▁ 푸
▁통 합
문 에
▁요 청
▁참 석
세 기
약 을
해 주
, 

정 에
▁프랑 스
▁불 구
▁받 았
사 ,
▁출 연
▁처 리
, 000
▁있 지
▁ 끊
장 과
▁굉 장
▁속 에
경 제
번 째
관 이
▁ 겁
▁미국 의
일 ,
▁개 념
▁외 교
하는 데
▁차 량
▁오 전
이 었다.

원 에서
▁ 옮
▁일 으
렸 다.

위 가
리 와
' 는
▁개 선
수 록
라 면
스타 그램
일 을
▁넘 어
▁출 시
▁독 립
▁것 "이라고
정 보
▁ 짓
20 1
▁ 까
! "

▁대해서 는
자 들의
▁아 름
드 시
at ion
▁보 다
▁ 넓
▁도 입
▁없 을
a g
▁담 당
▁그 럼
▁ 혈
▁것 처럼
▁확 보
정 책
적 을
분 이
이 션
▁대 체
▁힘 을
군 의
' 의
민 :
▁남 북
상 은
단 을
▁ 쓴
▁관 광
시 킨
체 의
프 트
없 는
롭 게
▁대 비
이 드
당 이
됐 다.
▁수 행
▁회 사
▁ 컴
이 크
▁각 종
▁하 늘
대 학
▁완 전히
▁최 종
▁제 기
▁핵 심
▁느 끼
▁ 끼
경 을
▁1 일
관 리
▁말 했다.
회 가
▁때문 이다.

에게 는
생 활
▁남 자
▁위 에
▁자신 을
▁조 건
▁ w
▁2 9
당 은
야 .
i d
했 고
▁부 정
요. "

▁사 무
▁되 었다.

산 업
. 4
▁구 체
▁되 지
▁이야 기를
산 을
▁ 옷
▁수 밖에
구 나
은 행
▁수 는
▁참 가
마 트
▁이 곳
▁예 .
▁T V
기 와
▁여 전히
▁ 라는
▁ 밖
▁논 란
우 :
▁안 에
▁합 니다.
장 으로
님 이
위 는
▁중심 으로
▁ 쇼
함 을
▁실 패
) .
▁ 훨
합 니다.

▁굉장 히
선 :
▁인 식
법 을
▁ 흑
-- --
▁ 십
▁대 응
▁자동 차
▁개 최
▁아 ~
니 아
했 다
심 을
이라 도
▁행 복
▁것 에
▁그 를
▁시 행
▁종 교
▁하 기
이 의
하기 로
▁ 탐
▁외 부
하 려
▁교 수
▁예 술
▁ 덧
▁그녀 는
u r
▁카 드
▁이 뤄
▁다 르
▁민 족
▁훨 씬
▁보 이는
어 로
으 면서
이라 며
▁스 트
▁남 편
기 ,
▁없 다.

▁반 드시
▁하 면서
▁사람 을
▁생각 이
▁장 면
▁젊 은
▁역 

▁ 겪
수 :
▁것 과
▁우 려
▁ 걱
기 

▁대통령 이
리 ,
▁부 담
▁제 주
듯 이
i g
린 다.
도 에
▁1 년
▁동 일
▁군 사
일 까지
▁가능 한
▁회 복
해 도
▁성 격
' ,
▁설 립
B C
조 차
▁ 옛
되 면서
▁과정 에서
▁여기 서
) 과
제 의
▁사람 의
어 들
▁확 실
▁생각 을
트 가
▁기 관
▁ 딱
겠 다는
보 면
o d
▁ 똑
▁ and
▁감 소
▁나 무
했 지만
나 무
▁경우 에는
▁한 다고
▁가 슴
▁ =
당 의
▁지 켜
▁ n
▁항 상
간 에
▁제 한
▁없 다는
님 의
▁그래 도
▁그 들은
▁ 냉
▁있는 데,
▁문 학
정 의
자 에
고 를
불 어
. 6
▁거 래
▁문 서
▁인 제
▁타 이
▁ 휘
대 학교
통 신
개 발
.. ..
▁사 례
▁혼 자
o t
▁ 탑
▁19 4
▁문제 는
계 의
▁오 른
▁하나 의
고 

▁ 링
일 이
씨 는
▁보여 주
▁" 아
▁ 징
▁만 약
▁브 랜드
▁ 혐
▁해 석
▁달 라
. 7
▁이 벤
일 부터
▁밝 혀
▁이상 의
▁위해서 는
▁기 타
▁소 리
▁평 균
이 지만
▁더 불어
▁대상 으로
왔 다.
▁마 치
▁ 납
▁이 하
▁ 습
h t
▁감 사
e m
. 8
론 을
▁돈 을
▁사이 에
관 을
▁ in
▁합 의
신 을
▁형 성
▁선 정
▁ 옥
▁파 악
▁보인 다.
▁바 뀌
▁그것 을
▁입 장
▁예 를
▁다음 과
과 를
▁변 경
▁프 리
▁점 을
▁절 대
▁유 일
▁3 1
▁그 리스
일 :
▁사 는
수 한
▁스 킬
▁타 고
▁김 성
▁ 뒷
구 가
▁안 정
▁바 이
▁ 에서
지 와
▁전 달
▁ 뇌
스 와
▁나 를
' 라는
i v
지 원
▁갑 자기
▁19 5
▁이름 을
습니 다
▁비 용
▁이것 은
▁반 면
▁원 내
적 이고
▁의 한
스러 운
▁어려 운
▁ 쌓
달 러
지 어
정 부
나 가
▁ 밑
▁이 끌
▁받 을
화 의
▁나타 나
" 라고
) 와
▁6 0
▁업 무
▁중 에
▁ 꺼
▁우리 의
▁지 배
인 트
▁주 목
방 송
▁인 도
▁만 드는
▁( 19
구 의
▁에 너
▁마 법
드 의
아 야
지 .
누 리
학 생
▁지금 까지
e c
▁공 급
▁있 겠
당 한
▁국 정
차 를
▁불구 하고
문 이
행 을
사 (
갔 다.
▁작 업
파 트
▁다 니
▁전 시
▁ 늦
▁최 소
시 오
▁이 르
▁ Y
관 은
▁ 뭔
▁기 반
▁때 ,
자 .
리 기
▁대표 는
▁대 선
시 설
▁건 물
원 으로
시 켰
▁덧 붙
▁ 벽
제 는
어 요.

선 거
▁가 르
▁들 고
▁살 펴
▁손 을
함 으로써
▁거 기
▁비슷 한
다 운
i m
▁사실 상
▁ 꼬
▁그러 니까
량 이
▁불 러
▁한 나라
▁ 싫
단 체
▁대 답
▁시간 을
▁빠 져
▁강 한
▁보 니
놓 고
겠 다고
▁거 쳐
▁마음 을
레 스
▁발 언
2 :
▁구 축
▁아 내
단 의
▁ 뽑
▁내용 을
u m
▁청와 대
▁ 뿌
▁가 서
▁싶 은
이었 던
▁시 대
드 가
▁통 일
▁그 게
어 .
▁앞 에
▁ 싱
▁행 사
▁대 중
▁수 상
▁못 하는
▁회 의
▁하 며
▁전 해
. 9
▁ 케
l o
▁몸 을
▁ 짧
▁ 굳
▁아 프
질 을
주 를
되 면
▁많 다.
분 에
▁정부 가
▁ 뜨
상 으로
시 장
▁( K
▁없 다
▁불 과
▁그 동안
▁인 생
▁정 의
▁장 성
▁ 흡
회 담
▁둘 러
▁설명 했다.

▁ 콜
리 어
▁그녀 의
▁이 들
다면 ,
▁나 누
▁ 혜
어 버
% ,
▁불가 능
▁요 즘
▁대 구
▁약 속
회 는
▁국 회의
▁내 년
▁ 액
전 이
스럽 게
▁지 하
실 을
다 니
▁필요 가
▁그 들의
▁국 방
▁드 라마
▁않 으면
▁후 에
▁떠 나
구 :
▁아니 면
▁단 계
이 기도
▁관심 을
키 는
▁ X
▁이 들은
a y
회 에서
▁201 5년
만 의
▁ 괜
▁희 망
▁진 출
▁음 식
▁수 출
▁나 의
조 사
▁대 변
인 데,
감 이
진 다.
▁본 격
▁ a
▁접 근
▁스 토
▁이유 는
▁잠 시
▁인간 의
종 의
포 츠
이 면
▁방 어
▁졸 업
▁나 머
소 가
▁국민 의
명 은
한 국
▁하 는데
▁높 아
분 을
▁신 경
▁애 니
▁신 청
겠 습니다.

까지 는
▁달 려
근 혜
쪽 으로
▁ 앨
료 를
▁정부 의
' 에
지 게
) 에서
비 가
▁고 통
▁생각 해
▁파 괴
인 들이
위 의
▁그러 면
연 합
▁수 입
▁인 천
이 고,
▁구 매
▁이 른
▁정부 는
▁대통령 의
▁사회 적
▁ 쳐
ᄏᄏ ᄏᄏ
스 ,
▁ 굴
정 으로
▁ 밥
▁있 다"고
시 고
선 이
▁협 력
▁개 혁
▁주 고
학 과
▁ 케이
군 이
▁전 화
세 가
▁했 던
▁항 공
" 이라며
▁* 

로 를
자 에게
든 지
▁그것 이
▁201 8년
시 를
▁달 러
▁ 샤
▁201 7년
텔 레
▁장 기
▁ 꽤
하 려는
▁201 6년
이 다
재 인
▁하 고,
▁지 식
▁광 고
량 을
▁게 다가
u l
▁검 토
▁근 거
▁ 셈
▁광 주
▁약 간
▁심 각
▁놓 고
기 고
▁새 누리
▁반 영
▁수 사
▁모 른
▁예정 이다.

퓨 터
▁아 들
와 는
두 고
▁시 험
▁쓰 는
▁전문 가
인 과
라 운
▁201 2년
▁고 민
▁자체 가
w w
▁불 안
▁없 다고
▁소 유
트 는
▁시 설
▁최 일
▁201 4년
) 로
세 계
▁201 0년
▁눈 을
▁1 ,
▁기 념
▁바 다
▁기 초
▁글 로
트 의
▁측 면
▁강조 했다.

율 이
▁빨 리
원 ,
말 로
자 :
멤 버
▁여 름
내 고
▁선 보
▁평 화
이라 면
트 로
하 나
▁ 폴
리 오
▁하 게
▁매 출
▁대 전
▁ 획
났 다.

단 이
▁전 환
i r
지 방
▁개 요

▁일본 의
스 

력 은
업 체
▁보 유
▁ 잊
▁ 짐
권 의
▁종 류
▁사람 들
▁지 급
기 :
▁전 부
▁여 기에
▁훈 련
규 모
화 된
▁바 꾸
▁이유 로
▁의 혹
점 에서
▁교 통
▁계 약
▁일 은
▁저 희
▁먹 고
되 기
▁이 거
▁보인 다.

▁직 원
▁재 미
▁도 착
▁예 산
씨 가
▁내 부
u t
▁T he
▁사용 하는
회 에
▁맞 아
▁정 리
▁의 료
았 던
( 2
▁2 차
▁거 부
요 ,
▁ 됩
▁ 칠
▁상황 에서
▁재 판
드 로
▁원 칙
▁주 의
▁작 가
▁가 입
▁초 기
▁종 합
▁기 획
우 리
께 서
o p
겠 다
히 는
▁ 봤
하 라
▁ 캠
소 년
▁제 일
▁지 정
정 치
석 :
위 로
▁경우 도
▁입 장을
▁ 겸
▁심 지어
만 한
▁공 공
▁점 에서
▁시 도
▁이 탈
▁갈 등
시 의
▁제 3
▁의 사
조 건
냈 다.
▁통 한
▁201 3년
▁ 맨
▁바 탕
▁제 안
▁관련 된
▁ 홀
세 대
품 을
▁대 화
▁동 물
그 룹
지 기
▁눈 에
▁ 뮤
▁수 익
▁유 리
▁있으 면
▁명 의
▁것 입니다.
우 스
▁듣 고
~ 1
▁하 였다.
과 학
4 0
▁ 밖에
시 가
요 일
▁수 술
▁해 주
는 다.

▁사 태
텐 츠
▁차 례
( 19
▁지 구
인 으로
▁은 행
▁자 본
▁정보 를
▁가 치
국 이
▁영 상
▁우 승
▁특 정
▁하 이
▁L G
▁상 징
전 의
▁화자 2:
er s
▁ 택
▁소 재
시 킬
만 에
▁아 시아
▁투 표
▁없 고
▁ 둔
▁ 맺
▁스 페
가 ?
▁ 멤버
▁링 크
▁경우 는
이 로
▁2 년
▁최 우
▁시 청
▁저 녁
k m
들 어
많 은
수 로
- 2
력 의
▁만 에
▁설 정
▁않 다.
호 를
▁길 을
▁ 잇
▁정치 적
a p
▁충분 히
▁201 1년
▁아 예
▁앞 에서
▁신 문
▁전 기
영 :
▁비롯 한
▁낮 은
역 을
▁장 애
▁밝혔 다.
다" 면서
▁규 정
▁아버 지
▁같 아
▁19 3
▁말 하는
▁박 근혜
호 :
▁스 마트
▁새 로
▁통 신
▁강력 한
▁아무 리
▁범 죄
▁작 용
▁우 주
▁컴 퓨터
▁영 업
▁정 당
▁누 가
▁거 예
▁위 하여
▁전 자
식 으로
▁음 ~

▁최일 구:
▁작 성
▁잡 아
▁도 움이
▁대 형
만 으로
▁것이 라는
▁일 어
▁뒤 에
▁이 익
▁부 여
▁처음 으로
o s
▁통 과
▁기 사
▁신 뢰
▁무 기
▁후 반
▁무 시
▁다 가
까 ?

▁이 론
보 니
▁(K ST
▁특 수
▁초 반
▁그 룹
▁대부분 의
▁가 정
▁머 리
▁부 동
▁부 르
▁변 호
▁추 정
▁ 봄
군 은
▁것 .
▁추 천
음 이
▁걱 정
▁벌 어
우 고
▁200 8년
▁통 해서
▁남 성
명 ,
▁북한 의
▁말 한다.
' 이
지 면서
▁ 몬
▁한국 의
▁끝 나
▁김 어
▁물 건
▁시 각
▁하 였
문 학
선 의
▁ 척
▁(KST )

▁완 전
▁ v
이 ,
% 로
해 를
▁언 어
▁전 했다.

▁배 경
▁문 재인
계 가
▁수 용
무 원
스 에
준 다.
) 으로
▁돌아 가
프 로
▁만 족
▁느 껴
▁ 칭
▁향 해
▁청 년
▁조 성
.. .

T V
학 년
▁않았 다.

▁시작 했다.
▁불 법
형 을
▁포 기
▁겨 울
▁부 탁
▁7 0
심 히
나 마
▁목 적
안 이
▁인 한
▁ 짜
겠 습니다.
▁출 발
▁생 긴
▁완 성
▁온 라인
▁만 한
안 에
시 대
▁선 언
▁상황 이
아 버
▁장성 민:
▁200 9년
▁자 리를
▁있어 야
▁주 도
▁ 헬
▁토 론
▁당 선
려 면
▁보 험
▁개 정
▁아이 템
조 를
▁민 간
▁ l
▁지금 은
▁3 년
1 1
지 면
c e
▁반 복
▁말 고
t er
증 을
▁많 아
% 를
기 간
▁ 든
▁공 부
나 ,
▁점 점
화 에
▁S K
▁집 에
자 리
▁201 9년
▁도 로
▁연 합
▁당연 히
들 로
비 아
▁오 랜
▁ 깔
소 에
경 :
르 크
신 이
▁차 단
권 이
6 0
▁의 식
방 을
▁ 곤
▁있 다면
도 와
▁이 재
▁일 정
력 과
( S
▁발 매
차 가
▁원내 대표
희 :
▁수 많은
▁전 반
▁괜 찮
리 게
▁보 수
리 그
▁제 출
▁마찬가지 로
▁정도 의
일 

▁영 어
▁장 윤
전 자
▁그 럴
▁상황 을
▁위 협
촬 영
▁실 험
페 이지
주 가
▁디 지
제 에
▁적 절
▁마 이
) .

▁ 쏟
▁나머 지
▁뿐 만
▁법 률
▁주 식
▁단 체
▁올 려
▁글로 벌
현 :
▁김어 준:
▁그 랬
▁업 체
▁ 낳
▁등 록
▁ 웨
▁도 와
▁엄청 난
도 시
▁최고 의
▁ 긍
▁분 류
▁물 리
▁비 밀
명 으로
▁아 는
▁배 치
▁방 침
▁ 쌍
했 습니다.
▁간 단
▁미 사
▁로 마
▁대 하여
했 으며,
▁ &
▁연 속
▁인터 뷰
▁사용 할
전 에서
▁체 험
조 의
▁때 까지
▁S t
▁책 을
문 의
▁ 삭
es s
▁맞 는
▁활동 을
▁베 이
▁건 축
o w
▁않 게
( C
▁리 그
▁유 저
진 을
▁슈 퍼
▁데 이터
▁사실 은
▁가까 운
' 가
▁홍 보
▁이것 이
림 픽
성 ,
에 만
▁제 조
▁전 개
▁매 일
토 론
▁들 었
한 다면
했 는데
으 므로
물 의
▁ 맹
▁이 외
▁개 의
▁크 리스
환 경
▁김 정
▁집 단
▁철 학
▁생 명
▁이 사
▁레 벨
▁사 상
니 스
▁받아 들
유 의
▁증 거
계 획
▁끌 어
받 은
▁이 건
▁가 득
▁비 난
▁경 기도
▁말 에
면서 도
리 며
▁중 단
▁제 거
구 는
▁월 드
▁같 다.
▁19 2
▁ h
▁비 행
▁기 여
사 에서
▁나타 난
적으로 는
▁대 로
다 른
▁상 호
▁여 론
▁프로 젝
▁고 개를
▁ 탓
▁별 로
▁차 이가
▁중 에서
▁기준 으로
8 0
▁ 몽
▁결과 를
▁가 면
▁현 지
▁관계 를
책 을
▁지 키
▁죽 음
스 코
▁마음 이
독 교
거 래
▁한 반
- 0
▁근 무
▁강 원
▁헌 법
째 ,
▁확 정
▁8 0
__ __
i a
▁구 분
▁1 .
▁알 게
▁200 7년
00 만
▁사람 들의
▁먹 는
▁ ."

▁유명 한
▁ 벤
▁때 마다
▁ 털
률 이
▁미 리
▁의견 을
▁김 한
▁스 테
국 은
▁아니 고
활 동
케 팅
▁깊 은
▁승 리
별 로
▁ e
요 ?"

니 ,
▁피 부
▁ 객
▁아 닐
게 임
▁하 락
야 말로
마 저
▁디 자인
▁했 지만
▁하 다.
▁ 걷
가 에
▁고 용
▁효과 를
상 에서
▁원 하는
▁아 파트
▁제 목
' 로
▁열 심히
여 서
▁그러 한
' 

▁참 조
▁ 꼽
▁그 만
▁성 능
워 크
▁떨 어진
▁ 널
▁K BS
▁명 령
▁주 택
▁뉴 욕
▁지난 달
1 2
계 에
▁늘 어
▁철 저
▁아 르
▁ 류
▁상 대로
세 요.
▁앉 아
▁살 고
▁장윤 선:
▁다 이
▁리 더
▁모 르는
사 한
당 을
▁있 지만,
▁덧붙 였다.

▁그 곳
▁제 도
▁등 은
▁자 랑
▁그 걸
거 운
▁글 을
▁벗 어나
▁ \
▁스 포츠
▁다 소
▁ 균
▁중 소
▁1 만
▁달 성
▁ 멋
다 ,
▁혐 의
' 이라는
▁모습 이
▁어린 이
사 람
▁적 은
' 라고
보 험
리 면
▁따 로
▁내 놓
▁주 문
분 의
쪽 에
▁선생 님
▁대 단
▁누 군
▁사 항
▁수 요
▁나 중에
▁연 출
▁즉 ,
하 시
▁보 기
▁ 훌
질 이
e w
▁임 명
▁나 이
▁조 정
▁직 업
▁3 일
▁보 이지
r a
주 고
▁부동 산
▁듯 한
하 려고
▁ 놈
▁국 무
▁다 루
하 다가
▁마 무
겠 지만
금 이
가 락
▁10 년
▁ 썼
▁말 해
라 의
▁마 침
▁결 코
져 서
▁어 찌
랐 다.
스 토
▁수 정
시키 고
▁걸 쳐
▁휴 대
▁창 조
점 은
율 을
▁식 으로
▁이용 :
▁선 발
단 은
▁지 휘
o g
인 ,
받 는
것 도
메 이션
▁ 붉
▁ 멈
하고 자
▁ 웹
▁활 성
보다 도
고 는
부 와
▁검 은
▁ 벨
티 브
▁능 력을
▁ 센
화 에서
▁표 시
▁것이 었다.
국 민
로 나
점 으로
▁도 움을
▁구 입
▁폭 발
▁관련 해
▁ 으로
군 을
더 라
▁이탈 리아
▁곳 에
▁갖 추
▁두 려
는데 

했 으며
▁뛰 어
▁경 향
▁ 촬영
1 5
▁I n
▁대표 적인
▁경우 ,
장 

▁ 첨
▁디지 털
▁이벤 트
▁전 용
리 

o c
▁번 역
▁편 집
▁방법 을
생 을
▁동 료
▁중국 의
▁거 야
러 스
▁연 기
▁삶 을
치 지
▁죽 은
▁향 후
심 이
일 (
▁소 환
했 으나
▁끝 에
▁중 인
▁의미 를
▁얘 기를
라 가
▁그 들이
▁나 올
▁3 5
재 를
▁소 리를
a b
▁긍 정
▁영 웅
▁이 라
▁축 구
▁조 합
▁ 덜
▁ 챙
석 이
▁위 로
려 서
가 ,
▁빠 른
▁상 처
면 에
▁ ;
▁같 다.

▁화 장
▁호 텔
보 를
▁생각 하는
▁기 울
▁어 떠
▁얼굴 을
▁맞 춰
▁왜 냐
▁발 화
▁비 중
▁국 립
▁그렇 지
▁말 은
신 의
면 을
▁이 명
▁맛 있
경 기
하 니
석 을
▁이용 해
▁ 왼
▁좋 다.
서 비
▁오 르
▁블 랙
▁아 닙
▁금 지
▁세 월
▁계획 이다.

화 는
▁선 물
진 이
▁흘 러
. c
라 :
▁좋아 하는
인 들의
쳤 다.
▁도 망
▁ 낸
( A
▁획 득
▁덕 분에
▁단 지
▁홈 페이지
▁것 인가
▁200 6년
서 가
▁20 2
▁바탕 으로
▁중 간
▁나 도
▁서비 스를
▁자 녀
▁기 독교
▁수 록
양 이
▁ 셋
니까 ?
주 

▁발 달
▁기능 을
▁삶 의
관 의
▁1 차
했 기
▁발 사
치 로
▁쓰 고
▁재 정
으 니까
▁그 에
▁t o
함 이
자 들
▁뜻 을
▁앨 범
뿐 만
자 들을
▁효과 가
▁신 고
다 며
▁요 소
국 을
▁피해 를
냈 다.

라 서
▁안 에서
▁직 후
▁근 로
비 는
치 게
▁아니라 ,
▁패 배
▁아름 다운
▁뭔 가
▁가 끔
▁이 라는
▁영 역
▁허 용
( 3
▁보 장
사 

i st
네 .
▁분 노
▁그 린
바 이
주 시
▁합 니다.

었 을
까 .
▁과 연
▁ 쫓
술 을
었 다고
롯 데
부터 는
▁항 목
▁아닌 가
▁실 천
▁거 짓
▁생 존
▁열 어
구 에
▁차 별
▁한 다"고
왔 다.

▁음 

웠 다.
▁불 편
▁새누리 당
1 8
지 에서
길 을
▁이 처럼
▁바 닥
( M
인 들은
▁과 정을
▁ 낭
▁받 았다.
▁ g
▁알려 져
마 을
학 적
▁걸 어
▁오늘 날
▁ 섭
▁아니 냐
점 에
▁포함 한
▁물 어
주 로
2 5
▁명 칭
▁ 숲
세 의
뮤 니
▁청 소년
원 과
▁와 서
▁ 띄
▁먹 을
▁마 케팅
나 게
▁하지만 ,
▁ 빅
▁교 수는
인 에
▁말 할
▁투 입
회 사
▁펼 쳐
▁ 텐
어 져
▁받 지
력 으로
▁ 춘
▁입 을
▁구 속
▁200 5년
▁쏟 아
▁곳 이
단 계
▁실 현
▁한나라 당
▁나온 다.
▁얻 을
버 스
▁하 자
▁상 관
▁보 이고
▁때 도
▁5 일
▁돌 려
▁10 일
▁한편 ,
자 들에게
▁브 라
▁ 묵
▁애니 메이션
어 의
i f
▁참고 로
▁문 을
▁심 리
▁김 영
▁만 난
" 고
▁미 술
산 이
지 

▁ 컬
전 쟁
아 이
▁극 복
▁어 제
▁관심 이
▁지 상
거나 ,
▁눈 이
▁없 었다.

▁쓰 러
바 일
어 는
바 로
기 까지
▁의 심
▁ 쥐
류 를
▁5 년
▁ 탁
화 와
▁공 유
▁생 기
ar t
▁김한 석:
▁시작 한
▁여 야
▁발화 자:
부 로
▁맞 추
▁나 름
식 의
▁등 과
성 도
▁아 빠
▁ 갤
력 에
▁남 은
▁아직 도
대 ,
** **
▁의 무
▁후보 는
▁방식 으로
미 를
▁공 포
정 도
▁아무 런
간 다.
▁부 인
▁힘 이
▁사실 이
▁북한 이
▁운 전
▁길 이
▁특별 한
▁못 할
▁동 생
▁위 반
^ ^
it y
▁그 저
▁20 일
▁그 거
션 을
▁장 소
▁힘 든
가 로
세 요
▁시 기
명 한
▁흔 들
▁학 습
7 0
▁도 전
음 에도
호 가
▁유 닛
▁15 일
▁C h
님 은
▁위치 한
스 티
상 과
▁교 회
▁2 .
▁이 ~
▁꾸 준
트 워크
받 고
c t
▁복 잡
▁처 벌
서 에
▁그 려
사 건
▁메 시
▁내 일
▁점 이
서 관
▁ 흉
▁이유 가
▁이 로
▁분 리
▁분명 히
▁좋 지
▁보 아
▁기 회를
▁ 엉
▁근 처
▁내용 이
▁있 다"며
▁세 워
o v
▁ 좁
문 은
작 용
▁결 합
▁실 질
es t
▁명 이
▁테 러
▁200 4년
▁떠 올
▁노 선
▁알 았
중 한
석 은
▁싶 어
▁체 결
▁상 상
a k
단 에
은 :
만 은
▁가 리
▁취 급
▁지역 의
▁ 딜
▁의원 이
수 ,
남 도
▁사람 들을
▁평 소
▁등장 하는
▁근 본
▁몬 스터
▁그 다
공 항
▁계 열
▁추 구
▁드 래
▁완 벽
판 을
▁들 여
▁이름 이
대 에서
▁데 미
개 혁
▁못 했다.
플 레이
▁유 치
▁신 규
▁들어 서
▁회 원
m m
▁비롯 해
▁희 생
▁효 율
▁태 양
▁부분 이
▁소 득
▁지 닌
▁자 극
▁흐 름
▁ ?
▁사 전
▁예 방
▁머 리를
▁뉴 스
▁어 쩌
▁했 는데
▁ 섞
▁ 튀
T A
▁유 통
래 도
시 로
▁어 깨
▁기존 의
▁링크 

었 고,
▁소 녀
▁ 빚
▁ 칸
% )
▁" 어
▁너무 나
체 는
이 

차 는
▁있 음을
▁마무 리
▁ ᆞ
▁그 나마
▁특 성
조 가
임 이
란 드
▁당 장
▁비 록
▁최초 로
' 은
▁5 00
a v
특 별
식 은
▁출 마
화 ,
▁엘 리
▁한 정
버 린
▁나 섰
▁ 롯데
로서 의
가 고
음 에
시 스템
▁어 울
▁감 염
▁밝 히
찬 :
드 리
권 에
이 버
▁3 2
수 도
▁저 항
학 을
▁이 라며
▁점 차
▁콘 텐츠
▁최 진
애 :
치 의
▁출 판
▁건 너
▁안 보
▁최우 정:
▁장 비
▁ 숫
▁확 산
▁확 장
▁생 겼
▁가 게
▁그 건
▁하나 로
권 은
관 광
▁이 스
▁데 뷔
▁뛰 어난
로 의
▁된 다는
▁무 료
▁카 메
로 가
▁유 엔
▁행 위
▁( 토론
▁지 니
▁구 간
▁ 녀
이 즈
▁협 의
▁ 득
에게 서
▁이번 에
▁기 계
▁거 기에
노 동
▁가 로
▁그녀 가
% 가
▁원 작
▁이제 는
▁버 스
▁고 정
다 (
▁빠 르게
▁M BC
▁다 섯
▁아 울
십 시오
▁새 벽
▁권 한
▁사업 을
하겠 다는
▁나오 고
서 의
▁저 지
▁무 너
평 가
▁회 담
▁K T
이 야
중 앙
▁혁 신
▁일반 적으로
이 익
다 시
▁소 년
▁할 머니
되어 야
▁동 아
발 을
▁커 피
투 자
겠 다.
마 자
▁동 의
직 을
▁ 쏘
▁생 겨
▁않는 다.

훈 :
▁그러 므로
었 는데
▁가 을
▁거 주
▁거 리
이 도
▁안 타
▁조 용
상 태
▁공격 을
▁대 북
▁매 년
사 항
드 러
▁2 일
▁늘 어나
' (
▁멀 리
▁인 수
1 6
▁4 일
▁이 래
' 으로
▁언제 나
▁내용 은
▁모 아
▁다 행
▁물 러
량 의
▁ 엑
▁인 근
▁ 덮
일 보
▁최초 의
어 요
▁흔 히
스 (
표 를
▁9 0
▁여러 분
▁ 런
하 지만,
서 ,
▁모 바일
미 가
▁나 아가
▁제외 한
갔 다.

▁훌 륭
" ,
어 ,
▁거 듭
▁운 행
il l
▁주 말
동 이
량 은
진 다.

▁200 0년
▁3 00
e ,
락 을
▁사 과
▁간 의
▁인 구
▁7 일
▁전 날
▁사이 의
격 이
하였 고,
▁김 구
▁옛 날
▁넘 는
▁쪽 으로
▁가까 이
명 에
▁그러 면서
전 은
는 가
▁문제 에
▁인 기
▁ 앤
프 를
지 요.
▁설 득
▁디 자
▁메 이
산 의
▁지적 했다.

▁조 각
▁30 일
▁하 더라도
안 은
▁고 향
▁이 성
---- ----
▁상당 한
▁인 상
쳤 다.

▁이 기
용 :
▁자리 에서
▁ 멸
증 이
▁일 상
예 술
▁ 흰
장 인
▁그렇 다면
▁주장 했다.

▁찾 는
▁촉 구
▁에너 지
율 은
국 에
▁물 을
▁의 하면
국 가
▁책 임을
ᄒ ᄒ
▁부 활
▁200 2년
▁하 며,
▁않 도록
▁발 휘
▁목 숨
원 (
▁200 3년
▁커 뮤니
▁ 쇠
본 부
▁설 계
방 의
▁옮 겨
▁사람 들에게
▁기술 을
▁연 주
▁대 사
있 다.
대 회
리 티
▁오 브
트 남
▁감 안
▁인 류
▁아울 러
▁ 떼
al l
▁단순 히
▁명 예
▁보 스
▁계 산
▁비 가
▁총 선
▁- -
▁바람 에
하 신
▁검 사
▁25 일
▁위 의
▁ 냄
▁대한민 국의
▁상태 에서
▁비교 적
▁유일 한
▁판 결
시 면
스 테
▁알려 졌다.

▁손 에
▁발 행
▁ 묶
▁도 덕
▁4 5
▁형태 로
▁ 값
복 지
E R
▁있는 지
ar d
▁소 리가
▁높 이
▁3 3
▁9 일
습니 까?
▁" 지
▁작 년
▁마음 에
▁이명 박
▁적극 적으로
▁자 리에
라 를
목 을
자 동
▁상황 에
▁필 수
▁ 밴
마 디
금 은
▁김 동
님 을
까지 도
▁ 끄
▁27 일
북 도
설 을
네 .

다 란
▁없 습니다.
▁근 대
▁궁 금
▁날 아
되 며
▁ 힐
모 를
▁따 뜻
▁앞 두고
▁알려 진
c m
▁체 계
해서 는
제 품
▁14 일
개 가
▁입 고
▁28 일
▁예 측
e v
▁대 회
1 3
- 3
▁21 일
▁보 였다.
협 회
▁코 스
▁최 영
형 이
▁대 규모
▁본 래
▁부 른
▁원 종
▁ 찌
▁얻 어
제 도
섭 :
1 4
▁영 혼
▁아 ~

▁잡 고
전 문
▁왜냐 하면
트 에
▁이른 바
▁고 위
▁본 인
▁경 상
해 가
an g
해 보
▁혼 란
형 의
▁말 한
▁떨어 져
▁심각 한
▁세 상을
레이 드
▁소 련
▁하나 는
분 기
▁바라 보
▁모 여
인 다.
▁있으 니
아 의
▁붉 은
▁상 담
안 의
▁공 화
( 4
▁현 장
▁불 교
▁집 을
▁신 용
▁세 종
▁채 택
미 터
▁고 운
▁ 붕
▁대해서 도
▁ 텔레
▁이 란
▁연 장
▁이 내
이 상
안 전
▁3 6
▁내 에서
▁에 피
▁공 정
▁활 약
▁(토론 )
원 :
▁- 

▁6 일
제 와
▁11 일
하면서 도
▁들 려
소 의
▁도 쿄
워 서
▁뒤 로
▁ 뚜
▁때 에는
기 만
▁스마트 폰
▁12 일
었 고
▁논란 이
▁의미 가
▁일 어난
▁끝 난
▁26 일
▁자 기가
▁패 턴
▁측 은
▁공 천
속 도로
▁조 작
▁짧 은
우 가
▁안 내
▁단 일
학 의
실 에
▁구체 적인
▁때문에 ,
주 년
▁어떠 한
▁22 일
▁보 낸
식 에
▁표 준
▁강 제
▁많 았
▁주 지
▁머 물
▁ 콩
▁교 체
▁그 만큼
자 .

인 물
다 보
실 에서
▁어 쨌
▁공 무원
▁강 남
▁하나 가
▁ 융
▁무 역
▁이 들이
▁탄 생
▁그 에게
▁외국 인
라 스
항 공
▁기업 의
▁8 일
▁예 비
▁공 통
▁크 로
교 통
1 7
2 4
▁가능 하다.
▁관 찰
▁작 곡
▁ 돕
호 는
▁지속 적으로
▁16 일
성 으로
▁라 디오
▁보 조
▁물 질
이 와
▁무 조건
▁P C
▁고 대
▁취 임
거든 요.

▁애 플
▁대 기
▁가 야
▁반 대로
함 에
렀 다.
법 이
▁ 셀
▁씨 는
씨 의
법 에
▁집 행
▁서 서
과 정
▁19 0
동 의
▁18 일
▁이 정
카 드
조 는
▁임 시
▁세 상
▁등 에서
연 히
▁가 고
▁채 용
▁사 장
▁혜 택
영 화
▁스타 일
▁2 ,
라 ,
▁우 수
▁바 란
▁조 심
▁질 문
▁카 페
관 에
▁채 널
▁내 리
▁말 도
u b
부 ,
▁17 일
▁이 걸
ou r
▁자세 한
▁작 중
▁24 일
▁고 급
9 0
당 에
▁23 일
▁검 색
▁열 고
르 트
▁동 원
▁진 입
▁중소 기업
▁나 쁜
보 가
▁19 일
▁ 챔
도 

▁일 찍
사 고
▁ 펀
▁위 키
▁초 대
▁풀 어
▁절 반
▁경우 에
▁연 습
법 은
▁ 틈
▁행 동을
복 을
▁이 들의
▁ 면서
▁계획 을
▁지역 에
▁좋 을
▁공 산
로 그
주 택
▁미 디어
▁넣 어
▁ 쌀
▁박 은
( 5
했 지만,
▁못 해
▁때 가
▁방 안을
▁진 정한
놓 은
▁거 대한
들 ,
▁것 일
e p
▁대변 인은
자 

▁변 화를
▁최 대한
▁역 대
이 한
대 와
▁ 빙
i p
▁합 리
이 니
▁안 녕
▁올 림픽
▁김 대
소 득
▁개 편
선 에
▁없 어서
▁내 세
at h
▁현재 의
▁명 확
라 

▁되 기
▁13 일
망 을
▁ 들이
▁ 춤
▁내 게
▁이 승
▁올라 가
구 역
▁국회의 원
배 를
▁바 꿔
▁새 롭게
▁파 워
리 스트
▁통 제
소 는
▁한반 도
▁그렇 다고
▁이것 을
통 합
▁다 르게
i e
▁사랑 을
▁옆 에
▁몰 아
▁싫 어
▁3 .
▁있으 나
▁당신 이
▁무 리
▁연 계
라 우
었 다는
▁아 까
경 찰
▁내 에
▁베 트남
▁신 체
연 을
에게 도
▁29 일
▁ 잉
▁19 1
▁ 앙
▁보여 주는
▁I T
방 이
▁정 체
▁받아 들이
▁접 촉
냐 고
장 관
▁ Z
~ 3
▁누구 나
▁생각 하고
▁네 트워크
자 치
▁화 려
진 은
▁보 였
▁성 향
▁비 상
▁스 피
% 에
▁경 계
▁사람 도
at e
▁파 견
▁성 과
▁외 에도
▁모두 가
▁이루 어진
▁1 000
자 (
금 융
가 족
▁" 내
▁점 은
▁관 객
▁보 건
▁실 행
▁것 인지
수 에
% ),
▁씨 가
▁평가 를
끄 러
▁묘 사
▁대 립
▁고 구
▁유 니
▁어 른
▁( 200
▁밝 힌
▁후보 가
▁일 에
▁무 려
▁운 용
▁만들 어진
시 마
했 는데,
▁( 201
▁관 측
▁ 곁
금 의
세 에
▁종 료
▁혹 시
성 (
▁노 출
▁관계 가
▁들어 간
▁답 변
▁최 저
▁제 국
▁미사 일
▁개 입
보 호
럼 프
▁마 주
▁이 슬
▁들어 오
수 와
되 고,
▁됩 니다.
▁기 온
▁진 보
▁외 에
아 ,
▁평 양
▁소 통
이 브
▁드래 곤
▁이 중
네 요.
▁부 처
▁그것 도
▁겁 니다.
▁성 적
▁노 무
물 로
▁나 선
▁서울 시
▁빼 앗
▁ 뚫
% 의
▁몇 몇
▁프 레
▁압 박
▁위 에서
▁한 미
▁유 도
▁이 같이
각 을
▁잠 깐
▁감 정
( P
실 이
▁본 인이
하겠 다고
▁ 맑
▁곳 에서
준 다.

가 와
▁대 책
▁에피 소
▁메 뉴
▁충 돌
▁겨 우
하 셨
▁장 난
포 인트
▁그 날
▁폐 지
▁불 리는
▁방법 이
▁이용 한
▁정확 한
로 드
n d
▁불 리
▁선 진
▁병 원
하 의
▁반 발
▁지원 을
▁대 출
▁벌 써
▁회 장
▁아무 도
▁ 으
▁몸 이
▁대표 가
유 를
~ 2
방 에
▁방 영
▁3 8
▁상대 적으로
▁수 석
여 행
▁왔 다.
▁아니 었다.
▁의 하여
▁편 의
병 을
▁ 떡
동 에
되었 고,
라 엘
▁이름 은
▁김 태
▁김구 라:
까 요?
▁충 격
▁사건 이
피 언
▁살 해
▁반응 을
▁나왔 다.
▁장관 은
▁아프 리카
▁ 듀
▁꾸준 히
선 은
비 용
▁현재 는
반 기
서 울
▁ 깜
▁민주 주의
물 은
▁3 개
▁공 항
▁집 에서
▁이 특
▁각 주

▁줄 어들
케이 션
일 )
▁내 는
▁발생 한
적 이다.
▁부분 을
▁밖 으로
▁정 기
▁아이 가
▁삭 제
말 을
한 의
▁것 .

▁소 송
번 에
기 지
화 로
▁충 청
기 능
▁되 고,
▁것 ,
물 에
▁전 면
직 한
▁굳 이
▁그렇 죠.

▁정 작
▁오 픈
▁기 분
▁냄 새
▁종 종
▁커 다란
▁영 원
▁고 등학교
유 가
병 원
( I
▁복 귀
▁ 뻔
▁김성 수:
▁ 맵
▁하 였다.

자 고
차 례
▁수 립
▁사건 을
비 의
세 요.

▁ 젖
▁기 원
▁아 우
e a
진 의
▁블 루
▁일 제
▁인 기를
네 요.

▁신 앙
▁ 윌
▁생활 을
▁방향 으로
▁정 규
▁열 리는
▁원종 우:
속 에
▁스 파
▁목 적으로
▁경제 적
▁울 산
on g
액 을
▁노 력을
초 에
스 카
거든 요.
▁제품 을
▁연 극
▁자 살
기 구
▁ 옳
마 는
▁된 다고
▁때 부터
▁차 원에서
▁장 착
기 (
▁요 리
▁현 상
린 다.

▁했 다고
▁받 게
▁싸 움
경 영
포 를
거 리는
▁공 중
실 로
▁인 공
대 책
▁넓 은
▁할 인
▁ 르
el l
▁일 종의
in e
▁재 산
사 무
▁히 로
재 가
▁지 시
▁서 양
▁복 지
▁정책 을
▁나 갈
5 00
▁스 위
청 은
조 직
▁미 세
▁인 용
▁이름 으로
지 컬
▁교 환
해 지
와 서
o od
▁무엇 을
마 가
▁정 권
▁다 녀
▁200 1년
▁ 뭘
니까 ?

▁ Q
▁것 "이라며
▁만들 고
▁홍 콩
줘 야
▁여 겨
q u
▁ y
마 의
▁개 별
성 :
▁무엇 보다
▁후 ,
▁없었 던
▁능 력이
받 아
▁오 랫
▁느 낄
마 를
▁3 4
▁가 치를
an t
▁등 급
더 라고
바 람
▁말 로
대 전
i k
인 에게
▁조 절
▁쉽 지
▁완 료
▁활 발
▁동일 한
▁김 종
▁풍 부
▁독 자
▁ re
기 준
3 2
▁아무 것도
▁ 곽
▁라 인
하지 는
▁갖 는
▁경 남
었 지만
▁어 쩔
▁사진 을
▁그녀 를
세 는
어 

범 한
장 (
▁아이 를
모 가
치 에
▁1 천
! !

▁ r
▁깨 끗
민 의
스 키
▁그러 자
견 을
▁하 다.

▁이특 :
ᅲ ᅲ
▁ 끈
▁코 로나
공 을
▁가능 성을
▁바 른
▁ 윈
잖아 요.

▁사이 에서
▁응 답
소 리
집 을
드 에
▁아 카
▁했 을
군 요.
개 로
▁강 하게
▁확실 히
] 

소 한
▁이야 기가
▁때 의
▁지금 도
▁ k
▁없 기
▁ 낼
▁전 설
▁것 입니다.

▁4 년
1 ,
▁야 구
▁정 봉
▁떠 오
▁클 래
져 야
▁마침 내
▁어 둠
실 한
▁철 도
름 이
민주 당
명 과
▁없 게
사 인
▁인 권
▁국가 의
▁무 렵
전 으로
트 

▁점 검
▁적 어도
▁권 력
▁사회 의
사 랑
역 시
▁보 지
바 닥
구 조
▁가 수
▁끊 임
크 를
▁김 광
▁워 낙
▁부 문
▁그 와
▁잘못 된
f f
▁오랫 동안
▁이스 라엘
▁할 아버
▁고운 기:
▁1 위
입 니다
건 을
▁꺼 내
▁규 제
▁보 았
▁널 리
▁통 하여
▁결 론
▁문제 로
▁의 존
▁단순 한
▁성 우
▁무 한
▁근 육
▁상 위
▁여 담
▁201 7
관 에서
▁옷 을
▁다음 에
▁대 기업
4 8
▁재 료
고 기
▁트 럼프
▁1 인
겼 다.
▁출 전
▁오 빠
▁마 리
▁일반 적인
으로서 의
▁끝 까지
▁뒤 를
▁저 도
▁소 프트
▁ 벼
▁거 야.
▁영 양
▁ 둥
▁게임 을
▁이 전에
▁독 특
▁선 호
나 의
▁곳 곳
. .

▁보 급
▁사 냥
▁돈 이
▁송 정
o k
▁전 년
▁방법 으로
▁유 사
▁한 마디
▁거 두
▁창 출
▁에 이
▁인간 이
▁무 장
▁200 0
▁미 니
▁되 돌
자 도
▁이 윤
▁올 리
▁대체 로
▁무 서
▁일 행
▁하 던
▁시 내
▁속 으로
▁보 안
▁상태 로
▁테 이
▁체 포
▁ 밟
▁몸 에
▁나 눠
▁쉬 운
' s
경 이
▁이후 에
▁엄 성
정 상
o .
었 다
/ /
▁좋 다.

▁어쨌 든
▁수 십
▁확인 할
▁사람 에게
' 이라고
2 )
다" 라고
▁ 뼈
▁않 겠
신 은
스 탄
▁모르 겠
▁202 0년
▁아 쉬
▁것이 라
사 들이
▁입 은
▁미 친
나 이
근 :
▁보 상
률 을
서 

로 소
하 이
▁자 는
대 체
▁그 니까
습니 까?

협 의
격 한
1 )
색 을
▁처음 에는
E C
or t
▁ 낫
끼 리
▁농 업
en d
▁황 원
2 ,
봐 야
계 는
조 선
▁부 르는
▁챔 피언
▁식 품
나 다
▁개 인의
▁의 해서
ww w
주 에
▁차 이
▁보 였다.

군 에
▁파 트
시 험
▁교 과
▁동 네
▁가 난
▁대 처
외 로
르 의
▁ 햇
▁예 전
▁목 록
▁해 방
▁화 가
▁하 는데,
▁적 합
▁없 애
▁총 리
발 전
▁이 웃
▁데 려
받 을
달 라고
▁남 녀
단 으로
▁탄 핵
▁압 도
라 .

언 을
▁자 가
▁15 0
▁전 화를
▁무 릎
▁경 고
▁대 화를
조 합
▁ 족
▁' 이
▁정확 히
▁않 기
▁무 게
▁부분 은
왕 의
▁하 겠
연 :
데 이트
▁방법 은
▁북 미
▁꿈 을
▁살 짝
▁노무 현
b er
▁작품 을
후 의
▁ 닥
령 을
▁엄성 섭:
전 략
▁예 수
▁기자 회
▁서 술
▁부 대
▁발 동
▁ 옹
▁규 칙
우 를
▁ 겉
▁자 꾸
일 러
부 (
▁당 사
▁즉 시
▁전 형
드 와
' 와
▁선 출
▁만 화
▁탈 출
▁긴 급
드 

사 이
▁발 굴
▁것 들이
상 ,
호 의
▁적 을
▁받 았다.

▁대 법
iv e
▁아이 들이
▁사 기
▁제공 하는
▁ 멜
▁스 카
▁마지막 으로
▁증 명
▁규모 의
▁김 정은
▁싸 우
▁스토 리
해 졌
▁ 센터
씨 를
류 가
더라 구
▁세 상에
▁마 르
9 9
▁지역 에서
미 는
되 며,
▁3 7
▁유 대
▁생 성
▁언 니
▁자 금
▁싱 글
▁의 도
▁있으 므로
로 도
▁식 민
▁부 하
▁ 린
▁국 토
▁황원 찬:
▁f or
▁중 의
t p
교 회
▁죽 을
구 ,
용 으로
체 에
▁보 니까
▁ 횡
트 리
었 습니다.
▁깊 이
하여 ,
▁계 기로
▁거 절
▁남 부
▁취 업
▁올 랐
▁갖 춘
해 지는
▁내 고
N S
▁ 닮
▁ 덤
터 를
▁단 독
상 황
▁살 인
▁되 는데
▁내 지
( T
시 즌
죠 ?

▁말 이다.
원 

▁I P
▁추가 로
▁프로그램 을
▁정 식
▁해 소
▁없 고,
▁데 이
했 다"고
▁1 회
▁질 환
▁정봉 주:
▁기본 적으로
▁계속 해서
▁창 업
▁ 펴
▁ 덩
▁창 작
▁ 빗
▁아무 래도
하 에
▁놀 라
▁주 관
▁자 격
적 은
▁ 닫
▁중 반
▁비 서
▁데 리고
▁만 일
구 로
▁당신 의
▁느낌 이
e g
환 :
▁ 겹
▁S BS
▁박은 주:
u d
호 ,
크 로
▁월드 컵
▁임 대
고 가
▁자신 에게
▁거 론
▁이슬 람
훼 손
' 과
▁ 쟁
감 독
▁기 상
▁마 스터
▁ x
▁얼굴 이
화 하는
▁이 같은
가 능
▁로 봇
▁당신 은
▁일 도
▁시 대의
▁주 력
▁태 어
▁임 금
▁지금 의
▁하나 님의
▁ 닿
▁매 달
▁관 람
▁이 슈
▁분위 기
▁며 칠
▁연 락
▁나라 의
▁발표 한
▁파 티
연구 소
▁훌륭 한
▁적절 한
▁들 은
▁된 다
am e
~ ~
▁한 때
▁수준 의
▁붙 어
후 보
려 야
▁ 찰
▁결과 가
▁그 야말로
▁추 측
▁ 닭
▁ 옵
▁방 안
리 트
제 한
▁끝 내
비 에
▁삼 국
▁나타 나는
▁기 회
' 고
문 제
시 ,
▁이끌 어
▁존재 하는
4 5
된 다는
웨 어
해 주는
' 에서
▁ 롤
s e
▁박 정
억 원을
▁자 원
이 던
관 ,
▁ 펜
▁있었 고,
▁정 착
▁수 학
▁호 소
▁ 텍
민 족
▁됐 다.

▁마 시
탄 을
▁수 업
ht tp
세 로
▁패 션
▁않 고,
국 제
▁많 다.

▁똑 같은
▁온 갖
▁탑 재
▁평 생
▁마 이크
▁제 정
▁입 학
라 리
i al
건 설
2 3
▁얻 은
▁방 해
▁조금 씩
▁측 정
세 포
▁포 인트
▁저 작
▁심 한
▁나타 났다.

▁개 방
주 ,
계 약
함 과
▁대상 이
▁ 퀘
▁야 당
▁ 끓
▁이상 한
공 업
조 정
▁집 으로
키 로
▁ 핸
상 품
▁ 쾌
s ,
▁하나 님
관 계를
▁대 결
www .
의 가
▁협 상
▁둘 째
▁흡 수
토 록
쟁 이
▁유 전
▁말 한다.

▁밀 어
▁경험 을
현 지
u p
▁오 직
▁다 름
▁최고 위원
▁ |
▁됐 다.
▁같은 데
▁곳 은
▁깨 달
다" 는
. ,
▁그렇 지만
▁최영 일:
▁ 샌
▁자 식
▁이 달
▁동 반
되 기도
▁파 이
▁호 남
▁역 사를
자 마자
▁연 방
▁메 인
▁스 크
하 라고
트 ,
▁향 상
부 에서
▁그럼 에도
▁이 종
해 져
▁돌아 오
▁귀 족
▁않아 도
▁지하 철
▁차 를
력 

하여 야
: //
▁구 현
▁" 저
▁경 북
▁이 르는
▁클 럽
▁살펴 보
▁긴 장
크 의
▁배 출
▁이 행
▁ 핀
▁아버 지가
▁봐 야
▁좌 우
▁가능 하다.

▁" 오
▁2 개
잖아 요.
▁이상 이
시키 기
▁자 율
▁사 법
▁취 소
▁잠 재
.c om
▁세계 를
▁역사 적
▁아 들이
▁전 남
▁신 설
단 과
▁가 깝
▁조 사를
▁자신 들의
▁ 멘
▁봐 도
▁즐 길
▁자료 를
▁준 다.
▁붙 여
▁음 식을
튜 브
▁관광 객
호 선
▁착 용
▁사 퇴
▁대 륙
시켰 다.
i th
▁보 관
▁트 위
▁생각 하면
▁질 문에
베 이
스 런
적 의
▁수도 권
드 ,
▁대 리
▁표 기
▁대 학교
이 므로
( B
▁여성 의
야 마
▁사용 한
▁초 청
▁시작 했다.

협 력
▁조 치
▁내 내
▁본 질
시 코
▁한 글
▁보 존
▁나오 지
▁동 맹
▁연 간
▁유 형
▁화 학
▁제 4
타 를
▁몰 려
en :
된 다고
▁당시 의
▁나 아
해 온
▁목소 리가
▁수 집
▁부 상
일 은
▁세 포
▁원 인
▁화 면
▁무엇 인가
▁" 우
▁손 가락
▁걸 려
▁오 바
a st
▁위 기
▁바 랍
▁성 과를
▁거 라고
하였 으며,
▁시 점
▁끌 고
▁사 내
▁느 꼈
k r
소 통
성 한
▁네 가
▁지 내
▁상 세
▁계 급
하기 에
▁공 감
측 은
종 을
▁부족 한
▁들어 가는
▁활성 화
하고 는
▁시간 에
죠 ?
신 :
▁해당 하는
▁무엇 이
▁에 어
률 은
▁점 령
▁비 즈
▁혐의 로
하 므로
서비 스
▁않는 다는
▁뿐 이다.
재 로
수 (
▁편 안
▁익 숙
▁게 시
▁운 동을
▁사랑 하는
장 애
▁형 식
지 (
▁박 사
▁개 성
" 라는
▁질 병
▁ 엠
공 사
▁부분 에
i an
▁지 어
층 의
▁ 웅
" 라며
▁않았 던
▁생 물
랫 폼
▁ 빵
지 않
고 등학교
▁시 원
짜 리
▁처음 부터
▁텔레 비
▁그 들을
▁정상 회담
▁믿 고
2 8
지 자
▁찾 을
▁성 립
2 7
▁태 어나
종 이
▁없 지만
▁발생 하는
▁시 기에
드 립
▁프로젝 트
I C
N A
▁나온 다.

▁인 민
▁작 업을
신 문
▁어 두
▁돌 파
생 산
▁무 관
▁상 업
히 고
색 이
동 생
▁ 삽
▁술 을
다 !
모 토
▁좀 더
▁한 다면
▁방 지
▁쇼 핑
판 에
▁모습 으로
~ 19
▁2 만
프 라
석 의
▁손 으로
승 을
▁한 참
르 지
쪽 은
▁세계 의
▁출 입
▁교육 을
▁성 인
적 ,
▁않을 까
▁ 꼴
▁동 영
파 의
▁혁 명
▁도 달
▁주 어
▁되 면서
나 와
▁형 사
▁초 등학교
미 의
▁곳 으로
▁기 도
▁않 으
▁보 편
리 에서
▁선 배
▁형태 의
▁합 류
▁업 데이트
▁내 린
즈 의
주 민
▁동 해
리 (
하자 면
▁객 관
차 의
▁아마 도
▁백 성
ac k
▁신 속
▁다 운
고 한
▁건 조
▁199 9년
▁고구 려
▁붕 괴
▁ 띠
▁전 후
로 우
▁유 행
▁있었 는데
훈 련
살 을
▁달 아
상 

▁변화 가
▁이번 에는
이 너
▁런 던
▁ on
▁환 자
▁ 웬
공 화
프 가
기 에는
크 는
▁멈 추
▁일 이다.
브 리
ec t
▁시 나
▁밀 려
▁이 념
▁때 에
▁ 댓
중 인
▁지니 고
질 의
▁고 양
▁뒤 집
▁오늘 은
▁공 사
크 가
▁201 8
▁담 은
피 아
선 으로
합 니다
결 과
센 트
▁목소 리를
소 설
▁송정 애:
▁ 팽
자 금
2 1
▁생각 할
▁타 입
화 한
▁페 이스
▁만 남
▁정도 가
▁특 유의
▁ 쿨
▁ 탱
▁배 제
▁자 전
▁거예 요.
활 동을
운 드
▁지 혜
▁등 도
악 의
▁18 9
스 에서
2 6
답 게
▁만 날
▁차 가
▁ 렌
레 벨
분 야
동 ,
도 에서
림 을
심 한
▁목숨 을
▁범 위
연 한
연 이
▁구성 된
a in
▁몰 랐
스 케
▁구 별
▁미국 이
법 의
▁감 각
주 일
▁키 워
해 ,
▁못 하게
소 에서
▁하 셨
▁가 볍
▁진 정
u re
▁" 정
▁공 략
▁직 장
▁이유 를
▁했 습니다.

▁그 들
▁영 국의
▁자 네
▁' 아
▁곧 바로
▁개 봉
▁어 ~

오 고
( G
▁4 8
▁하나 를
트 라
▁호 흡
▁동 작
▁관련 ,
타 임
▁안녕 하
스트 를
▁속 의
▁대 개
가 

으로 도
▁당 부
▁먹 어
▁소 모
▁유 래
교 의
▁국회 에서
▁모른 다.
▁4 .
원 들이
회의 에서
주의 적
판 이
▁지 향
하려 면
체 로
군 과
▁되 게
▁맛 이
▁법 무
▁피 아
▁돌아 온
됩 니다.

▁삼성 전
▁199 8년
차 에
체 육
렸 을
▁수 비
e x
▁201 6
▁노 인
▁물 었다.

▁좋 겠
▁논 리
▁본격 적으로
▁유 용
▁ 핑
내 용
▁사 유
▁교 황
일 본
모 델
리 면서
▁깨 닫
가 지고
▁당 초
▁음 반
름 을
▁3 9
▁지나 치게
ig ht
▁마 사
▁검 증
▁하 다
▁ 콤
▁생각 한
하기 를
▁조 치를
▁치 열
▁원내대표 는
▁상 임
등 을
영 의
▁ 꼼
▁살아 남
▁섭 취
▁분위 기를
경 에
▁밝혔 습니다.

▁대 폭
양 을
▁보 면서
주 (
▁연 예
3 5
▁모 자
카 와
▁신 의
사 이트
▁갖 게
▁심 사
트 와
▁말 하고
▁주 시
한 데
▁대 장
▁청 구
▁4 개
심 의
▁아니 라는
부 장
▁아 동
▁되 겠
제 ,
▁즐 거
▁맞 이
▁기 회가
증 권
▁이 천
▁조 종
력 ,
▁여 부를
▁컬 러
▁나 가는
▁ 앱
▁신 라
여 야
( E
( F
▁아이 돌
▁정신 을
i z
철 수
▁아버 지는
▁주 차
▁분 이
▁해 양
백 과
▁들 었다.
▁오 프
재 판
▁미 안
: 0
▁뮤 지컬
공 간
▁진 단
▁장 식
소 .
르 기
▁ 록
▁증 권
▁듯 이
▁보 일
▁황 금
주의 의
▁이용 할
▁있었 지만
정 과
▁투 쟁
▁만 났
▁시 대에
▁하 시
▁이 틀
▁끊임 없이
▁게 이
▁ 돋
▁서 민
▁줄 어
하기 는
▁아니 라고
▁주 제로
▁크 고
디 아
▁브 리
일 리
▁5 5
치 기
▁자연 스럽게
▁수 수
▁5 개
자 료
액 은
▁아 나
▁대통령 과
▁했 습니다.
▁붙 잡
령 이
느 라
▁느 낀
▁입 장에서
▁최 지
▁느낌 을
▁패 러
되었 으며,
e 

낸 다.
▁동 양
▁높 다.
싱 턴
▁전 부터
기 록
성 장
▁프리 미
▁일 치
무 는
▁유 기
▁독특 한
에서 부터
▁간 에
위원 장
▁ 잎
▁연 관
▁인 지
▁가 만
▁버 전
▁ 츠
인 다.

▁생 태
▁서 버
e )
▁시작 된
연 의
도 (
▁보 완
▁ 닦
2 

차 로
▁편 이다.
시 와
▁30 분
▁가격 이
▁했 다는
사 령
▁이 혼
E D
해 질
▁ 짝
▁" 당
▁ 넷
▁특 검
서 로
▁저 렴
▁강 의
▁ 낯
- 

▁ 궤
▁이해 할
▁ 봅
▁당 황
▁재 능
▁남 겨
되었 던
페 이
▁ 랜
▁목표 로
▁1 억
있 다.

▁아 키
쪽 의
▁하 다가
▁: en:
등 급
▁적 지
▁체 육
대 상
▁주 소
▁무 사
해 지고
산 에
마 스
텔레 콤
구 요.
회 ,
인 도
▁나타 났다.
관 과
▁고 전
▁주 장을
▁목표 를
▁자 치
▁천 천
▁유일 하게
▁의견 이
▁무 척
일 의
▁등장 인물
론 이
▁ 깃
평 을
▁플 랫폼
▁선 고
▁탓 에
▁세 력
▁장 악
▁미국 은
▁이 집
▁공 직
▁알 렉
( 6
▁스트 레
▁선 교
▁바 깥
▁말 하면
▁읽 어
▁199 7년
▁저 장
▁푸 른
▁ st
▁아 시
감 한
이어 트
▁근 접
▁시 켜
▁떨어 지는
▁ 곰
▁안 으로
▁등장 한
▁어디 서
통 을
▁요구 하는
하 시는
▁스페 인
▁이 렇
▁수 원
▁막 아
지 구
2 9
▁아니 다.

▁통 상
l d
▁김 명
▁나 에게
수 

시 티
▁실 무
▁이상 을
▁결 승
▁출 범
가 .
▁기 운
▁가 질
▁복 합
▁변 신
▁넣 고
류 의
▁들어 온
▁있어 요.
향 을
▁이미 지를
▁ 댄
▁원 자
▁태 어난
▁정도 는
▁드 는
▁아무 개
상 한
▁이 리
▁유 발
▁고 유
▁영 토
A R
▁카 운
▁1 개
▁노래 를
매 를
이 지만,
▁이미 지
▁엔 진
론 의
▁무 언
실 의
▁세 금
▁과 도
행 정
▁31 일
▁ 샘
▁ 층
나 를
▁모르 고
프 는
▁천천 히
▁드 디어
▁ 턱
: :
▁조 지
r an
그 러
r y
▁드러 나
▁또한 ,
▁않 습니다.
▁내용 의
▁나라 를
가 루
▁지역 을
▁사이 트
라운 드
▁ 맘
까지 의
▁물 이
국 에서
▁회 사의
살 이
▁휴대 폰
▁네 이버
산 은
▁일 방
▁맞 게
▁육 군
▁은 퇴
▁모 으
▁시장 의
▁취 득
▁해 군
▁집 안
▁공 장
▁오 토
▁적 응
▁시 사
▁낮 아
▁여 의
F A
음 악
▁이익 을
▁만들 기
▁평 범한
▁ 숭
▁텐 데
밀 한
실 은
시간 )
on t
l y
메 리카
▁일 시
▁구체 적으로
▁에 스
심 으로
시 한
▁있었 고
관 으로
▁적극 적인
▁나 쁘
▁수 백
니 다

▁ 킹
▁ 씻
▁시스템 을
▁사용 자가
액 이
▁후 속
당 과
평 양
음 은
▁날 이
카 오
▁도 중
▁솔 직
▁6 개월
▁대 미
▁자세 히
A N
했 다가
서 도
▁특 허
례 를
절 을
로 로
▁ 났
▁신 분
▁일 정한
자 유
진 흥
지 며
▁소 식을
▁라 며
E O
무 역
▁본 인의
야 ,
주 와
▁도 대체
▁쓰 지
▁걸 로
▁하 니
학 자
▁집 권
▁궁 극
▁따르면 ,
▁것이 었다.

음 

▁미국 과
내 기
식 품
셔 서
시 민
▁아버 지의
▁필요 하다.
▁수 치
▁이라 크
▁올 바
▁헤 어
재 의
미 술
▁전 작
▁하 드
기 획
란 히
▁소비 자
▁다 리
▁놓 은
▁노 예
▁빠 진
▁조 기
▁우리 에게
광 역시
하 러
▁소 화
5 5
▁아닙 니다.
▁하여 금
▁칭 찬
담 을
▁중 에는
▁결 정을
▁전 공
▁분 양
▁페 르
p h
▁ 깎
▁포 르
면 은
들에게 는
▁떠 난
▁진 지
▁뚜 렷
▁정 비
▁자체 를
지 인
▁구 멍
면 으로
▁않 지만
천 만
▁집 어
▁부 딪
에서 만
▁세 운
▁자 아
▁의 지를
▁일 자리
▁북한 은
▁트 리
▁오 스트
1 

▁이용 하여
▁댓 글
▁엔 딩
▁캐 나다
▁모 임
3 :
▁다니 는
▁여 자가
처 리
사 진
▁플 라
었 습니다.

▁곳 을
▁클 리어
▁주 기
▁종 족
▁후 원
하는 데,
▁모습 은
▁가 졌
▁대 다
▁보 며
▁맡 은
렸 던
▁취 재
▁ 멍
▁ 뻗
▁ 눌
▁박 종
질 환
▁기업 이
▁이 주
▁죽 음을
▁넘 겨
톨 릭
▁자신 은
▁예정 이다.
▁다르 다.
▁ 란
▁기 아
만 ,
▁오 리
소 로
되 자
▁무 대
▁일으 키
▁중 에서도
▁불 을
▁감 시
( R
▁이 들을
▁쓰 레
▁가능 성도
▁재 무
초 등학교
▁직 전
u st
▁정확 하게
터 가
강 의
▁종 목
▁인 사를
식 과
▁주 체
▁분 들이
▁ 랭
즈 를
▁공 작
▁가 시
▁치료 를
▁사 령
▁올 린
▁관련 한
치 료
▁아니 지만
▁ 굽
▁시장 에
▁아 파
▁아름 다
▁T h
▁ 멕
▁7 5
▁포 켓
▁인 기가
소 ,
ᄏ 

▁나타 났
▁업 계
▁책 은
았 을
▁겁 니다.

▁고 등
▁존 중
▁보 게
▁경향 이
▁부 부
▁방 사
▁ 덴
▁수 영
▁소 위
▁위원 장은
▁라이 브
▁원 인이
▁윤 리
▁서 구
▁시 장을
절 한
▁ 늙
▁비 례
▁있 다가
as s
▁베이 징
교 를
▁가 치가
3 ,
▁극 장
▁" 대
경 은
▁예 외
▁본격 적인
▁충분 한
▁지 명
▁동 기
▁농 민
▁그러 니
▁회 장은
m ent
▁일 자
부 모
▁눈 치
▁ 잭
든 가
따 라
면 의
▁의원 의
효 과
경 의
▁검찰 은
먹 는
▁양 국
것 이
▁시작 으로
▁점 이다.
에 ,
▁위 대한
▁기 분이
▁고 기
▁말 았다.
저 히
▁했 다
▁있었 기
▁강 요
▁신 동
프 의
▁극 단
▁3 ,
▁들 면
8 8
▁태 도를
▁계 약을
▁넘 어가
맛 집
력 도
▁거기 서
수 수
인 (
▁같 습니다.
▁워 싱턴
▁시장 에서
▁다음 날
▁형 제
or d
▁학생 들이
이 게
지 션
네 요
▁ 셰
냐 ?
아 시아
▁들 을
형 은
▁고 생
▁전 사
▁아 가
▁유 튜브
▁ 킬
3 )
▁것 만
뉴 스
▁총 리는
▁맞 지
ar k
▁문 자
P C
▁이 십
▁반 도
▁수준 으로
▁A l
▁편 성
▁됩 니다.

▁ 땀
▁" 여
▁6 5
▁들어 갔
▁레 드
▁질 문을
▁우리 를
▁이 강
▁오 로
▁플레이 어
▁나 이가
▁치 명
▁가 벼
ic h
▁듣 는
▁준비 를
▁생 기는
국 으로
▁없 다"고
▁진 화
▁김 현
▁수 리
인 들
▁아 저
▁것 보다
▁어쩌 면
▁파트 너
~ 4
전 한
▁미래 를
▁ }
▁플 래
▁변호 사
▁ 넥
길 이
▁자전 거
▁멀 티
침 을
▁전 라
▁지 은
) '
▁왼 쪽
▁업 그
▁채 권
▁미 치는
▁속 도
- 4
▁타이 틀
▁생각 합니다.
주 기
▁것이 며,
▁부 품
▁신 기
▁너 희
▁다만 ,
▁생각 은
왕 이
▁부 과
▁캠 페
▁회 피
( D
▁넘 어서
▁업 무를
7 5
▁상태 가
▁말씀 을
색 의
▁거 는
▁정말 로
A T
프 레
▁우 울
▁담 배
▁ 쪼
▁소 장
비 로
▁ 큐
▁어머니 는
▁같 았다.
▁작 동
미 널
▁일 러
행 위
▁출 생
▁새 정치
▁나 면
▁순 수
▁타 임
▁환 영
▁경 기를
▁병 사
점 ,
3 6
▁12 0
▁합 병
▁명 을
▁것이 고,
▁ i
▁4 00
▁해 체
▁전 력
▁확 률
▁"이 번
▁버 리고
▁느끼 는
▁ 섹
▁색 깔
▁탈 락
▁ 훼손
▁ 팩
▁초 래
▁세 대
레이 션
▁중 학교
유 럽
먼 트
해 졌다.
. "
망 이
파 를
▁식 사
▁재 개
사 카
▁했 으나
자 원
▁F C
▁토 지
▁했 고,
관 련
▁U n
▁어려 워
▁폐 쇄
▁인간 은
▁미국 에서
▁결 의
▁자 산
하겠 다
▁나누 어
▁종류 의
회의 를
▁악 화
▁필 리
▁흥 미
리 즘
▁기본 적인
▁있었 을
▁부 각
▁할 지
선 수
▁이후 로
▁합 격
일( 현지
▁담 아
▁못 한다.
안 보
▁사용 자
▁창 의
▁동 북
타 민
▁ 꺾
▁부 드러
연 금
▁나름 대로
사 용
▁기타 

▁입 증
▁영 입
▁승 리를
▁통 화
▁방 식을
▁법 칙
▁도 움
패 를
▁김 경
▁인 증
▁자유 한국
▁ 흙
▁기 쁨
은 ,
▁반 면,
ag e
우 의
▁배 가
터 리
▁또 다시
▁측면 에서
▁시 달
▁기반 으로
▁없 으면
하였 고
____ ____
( N
▁모 집
투 표
▁오른 쪽
▁4 대
O N
웨 이
▁식 물
▁않 다.

들과 의
▁4 4
스 턴
문 과
파 가
▁방향 을
재 는
▁한 쪽
▁후 에는
▁손 님
2 2
란 을
▁간 주
서 와
공 동
▁배 틀
▁윤 종
▁의 지
하 라는
▁4 6
▁황 제
▁접 속
철 :
있 게
▁금 강
▁목소 리
당 에서
▁초 월
▁자체 는
▁맡 고
▁그러 다
▁소 방
▁편 리
박 한
▁막 을
실 ,
▁둘 이
▁않았 을
▁천 연
피 스
▁운영 하는
▁사 로
▁배 려
때 문에
▁애 초에
지 ?
▁걸 린
▁담 긴
▁199 5년
▁해 보
▁양 성
▁파 일
e y
▁ 켄
▁미세 먼
▁공 을
▁시 키
▁늘 어난
▁계 승
▁정 관
▁100 %
▁개 설
▁일 관
▁사람 과
▁작 전
▁미 군
고 자
생활 을
▁아이 디
셔 야
▁따뜻 한
▁천 안
▁태 풍
▁주 최
▁과거 의
▁주 거
▁찾아 가
▁최지 은:
주 지
▁다 수
▁많 고
( 이
▁봉 사
▁민 중
r am
▁10 %
▁미 션
웠 다.

▁통 계
▁충 족
▁참조 .

▁즉 각
▁원 을
▁결과 는
▁지 불
▁P r
▁뛰 어나
공 격
▁구 글
▁ 컸
▁에피소 드
▁막 기
결 을
렬 한
▁그렇 죠.
치 와
▁d e
▁요 시
▁둘러 싼
타 는
주의 를
▁맞 은
▁단 기
▁주장 하는
▁갈 수록
▁사 장은
▁드 라이
▁이어 지는
▁ 뭉
▁감 정을
차 피
즈 는
니 가
습니 까
▁교 사
역 에
▁소 식
▁했 고
머 리
▁전쟁 을
까 요?

▁고 백
으 려
박 물
▁201 5
고 의
▁ 율
약 한
형 으로
▁199 6년
▁모 래
▁바람 이
베 르
▁전 북
▁법 정
▁박 물
▁갈 라
▁추 억
▁ 낚
레 인
▁체 력
지 고,
▁ 몹
▁분 열
▁안 철수
▁A n
▁특별 히
▁4 7
건 이
주 인
▁무 덤
▁카 이
▁정 지
or y
▁20 년
▁제 5
하 다"고
http ://
고 도
▁철저 히
운 영
▁해 안
▁들어 갈
▁다 를
▁역 임
의 원
병 이
역 이
▁성 격을
▁이 룬
▁네 덜
▁1 위를
▁골 프
▁세계 에서
▁사이 버
조 에
공 단
O S
▁' 그
▁뒤 ,
▁오바 마
크 라
▁공 기
▁공 무
▁아니 었
▁선 박
▁축 소
▁코로나 19
렀 다.

국 과
미 디어
I N
즈 가
▁서 해
▁고 맙
▁뿌 리
▁자리 잡
▁드 리
법 인
▁강원 도
▁경찰 은
인 터
▁비 로소
▁통 치
▁하 얀
▁최 선을
과 ,
▁되었 고,
▁새 끼
▁ 훔
▁ 뱀
실 험
▁명 백
공 원
▁거 죠.

▁건 데
▁의 외로
▁이 다.
▁영 화를
▁화려 한
▁기 재
▁임 신
) 도
▁약 한
▁살 려
▁모 험
▁소 요
▁틀 림
▁법 적
팀 은
▁전망 이다.

편 의
▁카메 라
▁금 방
▁짐 작
석 에
▁분야 에서
▁포함 해
▁두려 워
▁분 포
▁보 았다.
▁현 금
▁제 약
▁물건 을
▁논 쟁
▁ 밸
▁이용 하는
▁합 쳐
기 사
▁실 내
화 

장 한
▁있었 다고
▁네 네.

산 (
▁201 4
리 라
▁남 자가
▁"그 래
▁보여 준
숙 이
▁김 지
i es
등 록
▁무 력
기 기
▁신 선
만으로 도
자 본
▁진 영
▁않 아서
▁그림 을
욕 을
er ,
▁4 3
g e
되었 고
▁물 에
비 와
7 7
▁손 해
▁육 성
치 ,
수 준
▁일어나 는
▁농 촌
▁" 미
정 ,
▁무 의
하게 도
▁김 용
▁얻 는
▁어려 움을
▁멕 시코
▁나왔 다.

▁행 사를
▁국민 이
( W
하기 가
▁기 소
▁가 라
▁것으로 ,
감 은
게 도
▁등 등
▁서울 대
전 화
▁챙 겨
아 는
타 가
( L
▁건 립
하겠 다"고
된 다
▁" 한
겨 진
▁사랑 의
▁진 술
▁폭 력
▁엄마 가
▁축 하
▁이 민
전 과
방 향
▁전 원
▁문제 의
▁상태 를
▁ 갓
▁소 수
▁그리 하여
▁고통 을
▁어 리
장 도
철 도
▁ 솟
님 ,
▁한국 에
▁난 이
ic al
▁현 상이
▁경험 이
▁반 박
▁행 위를
▁것이 고
▁어렵 다.
▁경 선
▁당 한
▁뜨 거운
▁메 모
버 리
스 팅
▁간 접
▁날 씨
아 :
▁당 내
▁의 뢰
▁코 너
위 와
u c
역 에서
▁다 스
▁아 기
.5 %
▁침 묵
) 이다.
▁전 주
▁일 하는
대 사
▁법 을
르 가
▁세 우
자동 차
으 려고
▁발 을
건 강
물 과
▁왜 곡
▁50 %
▁땅 을
( K
비 ,
▁페이스 북
▁ 엿
▁동 남
▁기능 이
▁광 역
▁깜 짝
범 죄
▁교 류
▁경기 에서
▁비 디오
▁주 었다.
은 

▁어머니 가
▁주변 에
▁눈 물을
사 회의
▁스 코
▁심 장
구 와
▁최근 에는
▁받아들 여
ac t
▁발 전을
ar y
▁자기 의
▁대 량
위 에서
m an
1 00
▁못 했다.

는데 도
▁연 애
▁파 리
▁C om
해진 다.
▁친 박
▁주 제
▁언 젠
▁스테 이지
▁주 어진
▁그 릇
▁친구 가
▁시 장은
인 민
▁4 9
▁암 살
▁콘 서
▁맞 서
▁아니냐 는
▁절 대로
▁보면 ,
▁이 적
였 고,
▁모 를
▁적 도
▁사로 잡
너 스
타 로
▁유 사한
▁지 지를
▁빨 간
▁유 권
▁기 동
▁자 라
▁브라 질
▁차 라리
생 의
▁둘러 싸
법 으로
했 는지
인 

k g
졌 습니다.

▁사건 의
▁충 남
▁긍정 적인
! "
▁기다 리고
▁가격 은
▁201 9
▁받아 야
▁ 까지
▁김 진
v er
▁놓 여
▁제 재
▁출신 의
▁다 크
보 기
▁잃 어버
▁생 애
왔 던
▁주 먹
▁관 할
6 4
u e
속 을
데 이
▁현 행
▁전 세계
▁여 섯
▁뭐 ~
인 들을
호 로
I A
▁정 통
▁도 발
시 

▁움직 임
이 든
▁소 멸
▁다 들
▁다행 히
코 리아
▁드러 난
▁연구 를
on d
전 (
미 니
▁해 제
에 다
▁눈 으로
▁위 안
▁거 리를
▁한 계
▁분위 기가
▁혜택 을
▁되 찾
▁모 드
▁바 뀐
or k
▁마 감
수 사
▁말 했습니다.

중 학교
▁지나 지
▁터 키
▁담 고
▁S p
▁불 행
▁ 헛
▁고 발
P S
▁계 기가
▁소 형
▁스 탠
▁바 르
▁하나 도
O R
▁우려 가
▁ 휩
▁기 후
위원회 는
▁귀 국
태 를
▁시나 리오
▁첫 째
▁전체 를
3 3
▁ is
▁ {
▁후보 의
▁어 차피
▁아이 의
주 면
▁보여 준다.
▁가 상
▁적 의
▁3 차
▁후보 를
▁갖추 고
▁있었 는데,
in d
▁유 력
능 력
▁대부분 이
건 의
▁눈 길을
▁있었 습니다.
▁출 현
▁복잡 한
분 간
▁화 이트
( 金
▁개 그
▁테 마
▁사회 주의
북 한
o b
▁지 리
▁했 지만,
▁ 캔
역 으로
▁장면 이
▁단 어
겼 다.

▁오 염
▁입 법
▁그다 지
▁당연 한
▁죽 는
▁하 느
▁개 통
았 다고
조 로
▁부정 적인
▁기록 을
에서 ,
▁스 티
▁완 화
▁ 험
I S
▁추 적
▁" 우리
자 나
▁해 상
▁많 았다.
되 게
▁배 를
▁세계 적인
or e
▁ 곱
▁S h
▁개 헌
▁달 라고
▁ 뜬
▁기술 이
▁연 대
▁ 흠
시 하는
▁대 항
일 상
▁오 버
▁시 장이
▁전략 을
면 이
▁여 성이
지 :
▁빌 려
▁있어 요.

▁거 대
▁홀 로
▁커뮤니 티
▁연 령
▁입장 에서는
▁향 한
명 (
▁불가 피
▁더불어 민주당
▁예 예
▁풀 이
일 로
▁연 말
럽 게
▁관 점에서
▁단 ,
루 가
버 렸
▁디 스
부 문
▁18 8
▁리더 십
▁위험 한
▁적 당
▁청 문
▁아 웃
▁포켓 몬
종 은
정 (
로 서는
평 균
▁똑 같이
▁집 계
▁하나 인
▁3 대
감 과
▁치 고
▁대 우
▁달 하는
▁권 리
▁촉 진
책 임
회 장
▁위 치를
▁허 리
목 이
▁스 케
하 를
▁10 여
▁작 가의
▁발언 을
▁만들 었다.
▁청 원
까 지만
상 (
▁남 쪽
▁대통령 을
▁채 워
랑 이
▁부 작용
포 르
▁일부 러
▁움직 이는
▁선 임
▁버 린
▁거예 요.

식 :
▁가 속
론 은
▁스 웨
▁베 르
▁박 영
됐 다고
▁생각 한다.
▁한국 어
악 한
▁최 신
▁남 의
▁사용 하고
▁참석 한
▁불 어
e ar
▁부 터
▁기 부
제 (
그 래
▁아이 들
▁깔 끔
▁ or
▁고 속
▁셈 이다.

무 라
▁인 하여
▁시간 은
▁탑 승
▁단 단
▁이후 에는
전 ,
▁마음 의
▁편 입
▁학 문
니 어
부 대
▁내 다
▁인터뷰 에서
▁모 니
▁아이 들은
산 ,
▁찍 어
▁찬 성
과 도
화 점
▁갤 러
▁개 막
▁재 생
▁대 만
▁가만 히
▁공 모
▁ 짙
▁면 에서
▁본 다.
▁유 로
▁방침 이다.

▁종 사
▁우 수한
▁비즈 니스
▁중 화
▁야 마
▁보여주 고
▁3 만
기 보다는
▁이상 으로
▁것 들을
▁보 내는
▁길 게
r om
▁나 간
▁김광 일:
임 에도
▁있 나
▁침 해
▁부 근
▁비 핵
▁중 이다.

▁알 지
럭 시
▁하 거나
▁199 0년
▁담 겨
▁ 덱
▁출 간
치 며
▁분 쟁
▁실 업
▁뮤 직
루 션
기 념
오 .
▁마음 으로
▁직 무
▁등장 한다.
▁베 스트
- 5
▁(19 9
였 다고
▁이끌 고
지 사
▁차 이를
▁높 게
▁작품 은
지 .

▁드 물
체 계
▁가 려
들 고
▁보 냈
m ath
▁가볍 게
▁먹 으면
▁자신 도
▁카 드를
운 동을
▁가 톨릭
▁강 경
▁마 디
▁가 지는
▁거 친
▁녀 석
▁2 천
▁여행 을
▁하 기도
면 에서
▁않 다는
돼 야
▁문화 재
▁세 부
세 이
▁A r
▁읽 는
▁ 갱
▁안 팎
▁거 울
조 (
▁마 치고
품 이
▁대 외
▁18 0
▁뽑 아
f t
▁억 제
▁대단 히
▁한국 에서
▁점 심
▁사용 해
▁공 부를
진 ,
▁특 성을
▁들어 와
▁A P
▁빛 을
▁이 지
▁모 색
자 들과
▁남 긴
▁의 사를
▁북한 에
▁갈 아
경 쟁
▁한 창
▁ 캘
▁ 윗
시킨 다.
▁괴 롭
오 를
시 부터
▁ 폰
▁차지 하는
▁차 기
▁만 나는
▁ ]
▁지속 적인
▁가르 쳐
▁대학 생
▁실 망
▁스 튜
섰 다.
▁정부 와
역 의
▁때 로는
전 

▁한 동안
▁전체 적으로
▁합 동
▁비 공
▁부 시
▁빠져 나
▁4 2
( H
▁ 줬
3 7
▁되 자
습 을
▁ 쏠
호 텔
▁몰 래
▁프리미 엄
▁지역 은
▁최소 한
▁그 레이
a il
▁벌 어진
~ 5
▁영 광
식 ,
▁비 타민
▁연 설
▁체 제
▁구 경
▁ 냈
▁모 순
▁종 이
▁점 유
▁맞 고
A C
니까 .
▁간단 한
거 리가
▁까 닭
▁중요 하다.
▁중심 의
▁편 이
하 더라도
▁투 명
린 이
▁" 네
▁갔 다.
▁앞으로 도
▁ 셔
어 .

들 

▁보유 하고
▁참 으로
트 롤
환 을
분 은
▁ 꿀
▁숨 을
▁답 답
▁매 력
▁간 호
▁ 흩
웠 던
▁녹 색
▁보도 했다.

▁드러 내
▁여 자는
▁번 도
▁공 약
▁무 선
: 00
▁제2 차
▁시 위
▁관 여
▁수 호
인 인
▁일 로
▁품 질
▁다 룬
십시오 .
▁얘 기가
e b
했 다"며
▁있었 다는
음 의
▁ 썩
두 에
▁독일 의
▁오 지
en ce
군 .
버 렸다.
▁현실 을
단 지
▁현재 까지
기 온
▁토 대로
▁나라 가
▁L v
▁전 제
.... ....
고 에
▁지 자
버 리는
범 위
▁되 도록
▁편 지를
) :
▁사람 들도
▁ 픽
년 에
▁감 옥
▁부 서
▁생각 에
▁ 캡
▁절 망
▁고 마
▁v s
▁던 져
▁2 층
▁면 역
▁지 옥
▁10 만
이라 서
어 지는
감 에
▁ 앵
▁비중 이
▁ 잦
8 9
음 으로
달 라
▁오래 된
3 

▁때문 .
출 을
▁속 성
▁타 격
8 5
종 합
됩 니다.
▁늦 게
▁노 트
디 언
▁회 계
가 ?

▁C D
i b
▁축 제
▁발생 할
▁제 발
▁테이 블
니 는
▁비 극
▁구성 되어
▁비 대
▁스 승
▁예 고
▁유 입
▁출 근
▁점 도
▁혈 액
▁위 기에
총 리
었 는데,
▁여 유
▁필요 로
▁출 처
o. kr
▁멋 진
▁마 친
▁매 입
▁경우 에도
▁전체 의
▁어 지
▁시 선을
▁아이 는
▁묻 는
리아 의
▁호 주
▁3 개월
▁금 속
▁기 름
▁어 릴
6 5
▁가 스
▁접 수
▁ 끔
▁부 사
▁조용 히
▁엄청 나게
드 라
▁199 4년
컨 대
▁팀 의
▁대표 의
▁성공 한
▁석 유
군 (
▁거 리가
일(현지 시간)
▁가 동
루 를
▁중 간에
▁상처 를
▁가 량
3 9
▁제외 하면
▁남 한
▁한 일
▁이 경
▁이후 의
인 간
▁H P
님 께
소 와
▁경 비
▁6 4
▁땅 에
됐 습니다.

▁한국 인
▁가 해
토 리
▁좋 았
▁장 수
로 스
크 림
ol og
▁행복 한
▁멸 망
▁요 새
' '
▁매 각
권 과
인 한
청 이
행 이
▁전 파
▁있어 도
▁자유 롭게
s s
▁그 중
▁ 갇
^^ 

▁시 의
이었 지만
▁억 울
▁결과 ,
수 석
▁외 모
▁존 경
▁동 시
로 

일 랜드
▁이 영
윤 :
▁잃 은
▁시 골
▁ 델
▁화 를
▁공격 력
▁ 짚
▁이 끄
▁확 립
3 4
받 침
▁별 다른
▁신 중
▁진 실
시 (
▁물론 ,
▁실 시간
용 이
▁성격 이
▁동 부
▁과거 에
▁방송 을
발 이
▁마 땅
▁김 재
▁지 낸
▁김대 중
▁규모 가
무 기
A S
▁어려 울
▁듯 .
▁메시 지를
▁내 의
네 시아
is h
▁고 수
이었 고,
▁임 무
검 사
▁전 에는
▁ 몫
▁두 번째
▁찾 기
000 만
▁20 %
▁퀘 스트
▁말씀 드
▁문 화를
▁일어 났
▁투 자를
▁ 딴
버 그
다 리
▁생 길
▁처음 에
선 ,
▁ 래
점 

으 러
▁아 사
▁허 락
시 스
? ?
▁확실 한
동 은
▁확 신
▁페 이
아 지
▁죽 어
카 페
냐 는
였 고
▁이 자
▁부 채
▁납 치
▁하 위
▁모르 게
▁우리나라 의
▁뭐 가
▁상 실
▁균 형
▁서서 히
▁세계 에
▁상대 가
점 의
스 포
졌 다고
▁몽 골
▁트위 터
▁눈 앞
▁중 부
버 트
선 과
▁1 /
▁연 상
▁털 어
▁음악 을
▁부 적
▁머 리가
자 로서
구나 .
구 

▁# 다
▁메 르
▁연 금
▁영 상을
3 1
이 면서
ri g
▁이야 기는
▁생각 했다.
▁로 드
▁지원 하는
▁얼굴 에
풀 이
▁이전 의
▁저 런
▁한 가
번 호
요 한
▁관련 이
▁5 .
테 인
▁ 넌
I T
▁세월 호
기 에서
거리 며
겁 게
▁조 현
련 의
▁보 기

▁항 의
▁단 백
역 

▁예 약
둘 러
▁나타 내는
▁I S
▁잡 는
▁자신 과
▁재 배
▁시 대를
약 품
영 은
▁달 린
▁이해 가
▁넘 게
▁나 뉘
▁조 언
▁1 )
▁레이 저
티 즌
▁유 의
▁받 는다.
졌 던
▁일 각
소 속
▁그리스 도
▁초 과
아 를
▁언 덕
산 물
▁분야 의
▁말 이다.

▁건강 한
p er
▁국민 들이
▁일본 은
▁아 랍
리 포
▁속 도가
▁P ro
m er
▁임 상
▁ 촛
▁올바 른
▁간 부
▁읽 고
or n
▁시 가
미 사
A M
▁신 이
▁3 D
방 에서
리 나
리 자
▁" 무
조 사를
바 다
▁사용 되는
▁벗 어
▁추 락
▁대 략
▁상품 을
▁이 듬
명 

▁ 찢
▁" 너
▁20 대
권 ,
▁이 가
▁김 기
▁당 의
▁융 합
▁뜻 이
에 

이나 ,
▁설명 을
▁맡 아
▁현 황
추 어
됐 던
시간 이
▁ 앓
▁의미 한다.
▁한 층
▁기록 한
▁사 후
양 의
▁버 티
▁도 저히
▁이끄 는
I D
▁부 러
▁트 레이
8 6
▁왕 이
▁국내 외
▁적 어
서 야
▁p .
▁김 혜
▁한 데
오 가
하 긴
▁결과 에
▁' 나
▁이르 기까지
▁유 효
▁일으 킨
령 의
스타그램 #
▁한 두
▁ ᄒᄒ
▁해 명
▁입 주
▁ 켜
▁되어 야
▁부 드
▁ 뜯
▁각각 의
▁이루 고
▁심 판
▁안 고
▁전 술
족 의
▁존재 하지
▁알려 졌다.
▁슬 픔
급 의
▁윌 리
▁아 라
o h
▁사무 총
▁잡 은
▁ 굿
▁믿 는
▁의혹 을
졌 을
▁싶 지
: 5
▁숨 어
▁관 료
▁9 9
▁데 는
세 트
▁몰 라
▁풍부 한
▁국가 가
▁필리 핀
테 크
위 ,
받 았
▁핸 드
▁저희 가
▁시 는
▁크 다.
▁제 도를
▁매 장
▁잊 지
함 은
타 의
하 자는
측 의
▁응 원
▁사고 가
( 0
한 다"고
▁욕 망
▁회 전
▁컨 셉
▁구조 를
▁음 성
도 우
▁신 비
▁ 헨
▁갤 럭시
니까 

▁바이 오
체 와
▁지 연
00 여
▁것 인
▁다 리를
e e
▁회 의를
▁특 이
▁시 점에서
었 기
권 에서
▁나 이트
문 으로
▁ 왠
▁요 금
▁영 구
▁폐 기
인가 ?
▁연 재
▁ 붓
▁대 대
▁그 로
▁배 달
문화 재
▁개발 한
슬 러
▁ 땐
▁사회 에
▁장 르
▁전 까지
▁기록 했다.
▁내려 가
▁바람 직
억 달러
▁존재 한다.
▁혼자 서
▁생각 하지
였 지만
연 대
▁누군 가
▁사건 에
▁첨 단
▁해 설
▁서 부
▁표 정을
업 이
ᄏᄏᄏᄏ ᄏᄏᄏᄏ
▁같 애
▁강 릉
자 회담
▁장 갑
급 을
▁폭 탄
▁공연 을
산 화
▁북 부
받 지
▁p p
산 으로
▁E U
분 석
▁협 박
▁실 적
는데 요.

▁외 무
▁법 안
돌 이
▁다 수의
▁밝 은
▁김 일
영 이
청 을
지 라
▁신 인
▁브 레이
년 간
4 ,
▁오 리지
▁수 사를
중 국
▁싱 가
▁정관 용:
▁계 절
집 이
나 라는
▁밑 에
▁구 름
▁소 중한
▁북 쪽
▁도 서관
1 .
▁같 습니다.

▁중 이다.
▁최근 에
▁유 출
올 림픽
.1 0
집 에
림 이
▁바 라는
▁완전 한
ul t
▁1 조
둥 이
선 에서
▁매 수
▁매 매
▁ 헐
▁프랑 스의
먹 고
▁장 군
▁프 린
▁목소 리로
▁증 언
였 습니다.

▁이듬 해
학 ,
디 션
▁더 블
▁비 싼
▁어머니 의
▁ 릴
▁ 갚
▁ ᄏᄏ
배 우
▁외 환
▁이 수
사업 을
들 로부터
C D
▁제 임
▁당시 에는
다 보니
▁내 각
화 :
렬 :
▁순 식
숙 한
▁승 강
4 6
되었 을
▁있 느냐
ou n
나 고
법 과
!! !!
소 송
▁SK 텔레콤
▁않는 다고
아 웃
▁안 심
목 으로
P G
▁참여 한
▁선 전
▁변 형
▁승 객
▁참여 하는
▁저 기
추 천
▁홈 런
▁높 이는
민 이
▁있으 나,
스 포츠
▁나타난 다.
▁최 악의
▁ 꽂
▁잃 고
곡 을
관 (
로 에
▁비용 을
▁주 장이
▁조건 을
▁중국 이
성 

▁미국 에
▁씨 의
치 

▁ 굵
색 으로
en s
당 ,
▁거짓 말
에 요.
▁삼 아
▁끄 덕
▁살아 가는
키 의
▁로 켓
▁중 립
▁그다 음에
▁버 튼
▁채 로
▁배 신
▁수 송
▁언급 한
▁않았 지만
액 의
니 의
▁여담 으로
▁작품 의
▁좋 게
프 리
▁재 현
화 (
▁" 나
o st
i re
▁현 장에서
▁201 3
▁흐 르는
▁이외 에도
▁2 회
층 이
선 생
▁최 희
▁중국 은
▁시작 한다.
▁화자 3:
▁ 얽
▁정부 에
▁가 공
▁다음 달
▁블 로그
▁학 술
▁" 현
▁목 적을
▁최진 영:
▁201 0
▁양 산
▁믿 을
▁곤 란
▁맛 을
▁이 젠
▁되 어서
작 을
▁매 니
▁미 칠
▁개념 을
▁# 먹
▁법 인
단 ,
▁그렇 기
코 의
쇼 핑
▁2 배
▁자 의
▁예상 된다.

) 라고
편 이
것 은
대 비
▁너 는
래 프트
키 가
▁불가능 한
▁아침 에
가 며
▁마 스크
▁다루 는
▁아 끼
▁부담 을
▁윤종 신:
오 의
▁절 차를
▁전통 적인
▁잠 을
▁경 매
▁승 인
▁급 격
▁일본 에서
가 격
▁왔 다.

▁공간 을
구 요.

▁끌 려
들이 다.
▁첫 번째
▁나와 서
▁타 카
차 별
▁30 %
▁머 릿
▁징 역
▁브리 핑
▁와 이
▁1 시간
▁별 도로
▁해 주는
되었 다고
▁속 하는
▁많 지
▁가 짜
까 .

님 께서
▁바 보
▁준 다.

▁부 패
4 7
▁오 해
▁위 기를
▁신 호
▁것이 기
▁침 략
▁" 자
▁ 핫
▁전 직
봉 :
▁인 상을
▁일 대
▁201 2
▁바 닷
▁귀 여
▁테 스트
▁지방 선거
점 과
▁차지 하고
▁안 되는
▁일본 이
증 )
▁대 공
막 을
▁격 려
▁직접 적인
▁개 척
▁안타 까
▁권 리를
▁A I
다 이
▁김 수
3 8
▁ @
혁 명
▁출 석
잖아 .
치 면
미 나
서 (
▁주 재
▁클 린
▁사 정
▁커뮤니 케이션
ation al
▁한 다"며
터 는
▁199 2년
▁대표 하는
▁실제로 는
▁후 쿠
▁거 죠.
▁일본 에
▁" 전
un d
▁부 를
▁성공 을
타 이
C C
▁충 격을
▁우 연히
터 의
▁내 리는
▁피해 가
▁C J
▁건 담
▁비 싸
▁케이 블
▁충 실
▁시 범
데 미
학 은
▁체 크
▁물 고
등 한
▁2 

▁보 좌
▁박 지
다가 ,
▁악 마
▁주장 했다.
▁순식 간에
▁중 독
▁은 근
▁작품 이
-------- --------
야 만
▁" 예
▁쫓 아
▁가슴 이
▁과학 기술
▁이곳 에
하 하
▁이 럴
▁날 카
▁아 스
▁의미 에서
부 르크
▁맛 있는
이 랑
▁테 크
▁약속 을
un g
▁약 간의
▁마 구
▁비판 을
▁여러 가지
▁고 속도로
▁앞 의
▁하늘 을
▁아니 겠
▁5 6
▁말 라
▁포 장
▁관 절
육 아
or m
▁점 에
회 와
▁ 엮
방 으로
n e
▁적 대
▁비 유
▁목 을
물 질
라 와
▁전형 적인
▁파 는
항 을
토 의
나라 의
▁M S
▁결국 은
▁주변 의
워 드
▁# 

▁권 력을
▁끝나 고
▁완벽 한
▁노 란
▁치 러
▁좁 은
동 으로
▁국가 대표
▁성 취
▁누구 도
미 :
▁포 도
▁말 하자면
카 가
▁내 보
▁정신 이
리 고,
▁말 아
▁돌아 와
▁주 가
▁불 꽃
▁느끼 고
로 워
▁복 원
▁오 페
골 을
▁아 베
▁나 갔
▁용 서
조 리
▁ 쥬
▁함 유
▁겪 고
▁사례 가
▁# d
두 는
▁인 재
▁못 했던
직 원
▁즐 겨
▁유 혹
▁2 )
▁ 횟
▁협 조
구 에서
▁재 건
▁절 차
관계 가
▁카 르
화 되어
▁정도 .
▁공 주
▁먹 은
▁성 남
▁촛 불
▁자유 를
스 레
▁" 사
편 에
졌 고,
▁김명 우:
▁어두 운
묘 한
▁아이 들을
▁올 리는
하면 ,
것 을
인 들에게
어 와
안 과
▁제 법
▁즐 기는
▁초 점을
▁수 능
중 이
▁6 개
4 9
▁별 도의
▁일어 날
이었 다고
▁신 화
▁사회 를
▁텔레비 전
▁9 5
▁마이 클
▁쓰 이는
되 거나
▁맞 춤
▁증 상이
▁과 정이
▁부 지
▁식 의
▁히 어로
▁실질 적인
▁"그 렇
▁ 싹
청 에
▁충 전
▁심 의
▁피아 노
▁신 경을
▁얻 고
▁보 입니다.

▁입 력
▁있어 서는
▁써 서
▁4 ,
▁애 매
▁좋 고
▁위키 백과
▁대해 선
▁이후 에도
마 이
▁어디 까지
▁한 숨
▁199 3년
▁아니 다
부 

▁# f
▁비 율
파 는
시 대의
스트 로
▁잡 지
▁인 력
▁ 줘
▁사고 를
▁정 복
뷰 티
▁전문가 들은
▁관 념
▁스웨 덴
▁식민 지
▁도 서
스러 워
▁나 설
▁사 우
▁대 거
▁더 구나
환 이
▁후 손
희 는
타 운
▁관 해
▁여 기는
▁ 에서는
▁회 사가
▁무서 운
▁사 격
▁듯 하다.
평 화
적 이다.

▁"그 러
선 언
▁아 리
▁P D
숙 :
▁허 가
" 는
▁기자회 견을
6 6
▁의미 로
ou t
▁파 란
했 으나,
▁환경 을
기 인
▁팀 이
▁ 넉
▁여 당
▁ 얇
▁시작 하는
▁업그 레이드
% 

▁남 자는
▁택 시
▁출 산
토 를
▁오로 지
▁심 하게
▁서 쪽
▁일 곱
▁재 밌
▁자본 주의
▁부 진
▁크 루
▁에 ~
▁특 정한
▁ 썰
▁2 번
▁것이 다
▁프로 듀
▁수준 을
▁남편 이
▁세 트
8 7
▁당 뇨
▁때문에 

▁이루어 져
층 에
m ,
▁전 당
▁골 드
시 절
속 에서
하 느냐
됨 에
거 리를
▁특성 상
르 몬
카 의
▁날 려
▁네 티즌
▁과 제
▁고 양이
판 매
▁대 안
빨 리
▁ 튼
역 사
혁 :
▁개 조
료 가
위 

설 이
▁이르 러
▁당시 에
▁감 상
▁놀 라운
모 로
▁독 점
▁게임 의
ar e
▁솔 로
르 며
▁198 0년
▁상황 은
달 을
▁단 편
▁기 자가
▁군 대
기관 의
▁성 장을
▁1 번
▁" 국
▁고려 해
▁100 만
▁C EO
바 라
▁아 군
클 럽
▁명 시
▁형태 를
으니 ,
신 과
너 지
할 수
▁하나 씩
▁면 접
▁사용 한다.
▁상 대를
lo w
▁팔 을
▁b e
시 장에서
▁경우 를
▁20 여
4 )
▁속 도를
▁이루 는
▁누 적
▁S NS
▁아래 로
▁꽤 나
▁- --
니 와
▁이 데
▁떨어 뜨
▁시리즈 의
▁5 2
▁옵 션
▁김 국
▁주 연
동 과
▁주 저
p l
▁잠 수
▁같 다
▁생 명을
▁무 용
▁사 찰
▁남 을
▁자 ~
▁동 쪽
▁사 전에
▁전쟁 이
▁매 체
브 라
▁경 주
▁존재 를
▁4 1
업 에
▁보 증
▁미 루
▁제주 도
러 가
a ,
▁희망 을
이었 고
▁일부 를
▁실 용
▁학교 에
▁원 천
▁역 사의
▁트 렌
▁인간 을
문 에서
▁재 벌
리 우
있 던
▁의미 하는
▁눈 물
▁네덜 란드
▁많 아서
▁진행 된
▁기 어
미 래
두 를
▁한 자
▁맥 락
문 (
▁양 쪽
▁전해 졌다.

▁10 시
▁당 일
▁입 장이
▁"내 가
리 라고
▁세 이
▁감 추
▁정신 적
▁바닥 에
▁라 이트
▁집 착
무 가
▁주 한
▁액 션
▁기억 이
▁견 해
▁또 ,
▁제 국의
▁저 렇게
▁요 약
카 이
▁여 객
▁자 존
▁결 심
▁대 책을
화 하고
▁표현 을
- 7
팀 이
▁데 서
▁발표 했다.

▁복 수
▁이로 써
▁피 를
▁오리지 널
▁기록 했다.

▁전 차
라이 더
대 통령
▁기 사를
토 가
하였 으나
하 가
▁사용 하지
▁이 인
공 이
▁왕 의
▁가능 성은
▁유지 하고
방 법
▁비 정
▁윌리 엄
▁비판 했다.

▁잡 을
사 도
졌 다는
T E
▁영원 히
▁해 가
▁사건 은
연 맹
▁되었 을
▁패 키
▁민주당 은
▁ 찔
▁상태 에
중 심
▁양 도
투 를
▁제 압
▁힘 으로
ic e
터 테인
▁김 상
▁b y
▁가벼 운
▁미 소를
▁아 픈
▁회 사는
▁포 괄
▁하 반기
▁여론 조사
▁침 입
▁무 기를
▁나 은
▁춘 천
▁유 동
▁관계 에
▁리 얼
▁착 각
▁지 출
겠 다"고
▁로 스
▁환 자의
▁기원 전
는데 요.
▁인 쇄
늦 게
▁했 는데,
▁위 성
시 피
▁한국 과
▁설명 했다.
▁단 축
▁시 인
왕 은
▁문화 적
▁겨 냥
▁충 북
▁부 장
▁인물 이
통 이
▁기준 을
▁어 째
) 라는
▁그러 고
▁얼 음
▁노 조
▁발 효
▁죽 이
y ,
i o
▁지 식을
위 기
▁셈 이다.
▁추구 하는
방 은
화 할
▁현 상을
체 제
▁명령 을
▁" (
▁공 군
.1 %
▁서울 특별
s h
아 리
치 면서
면 

▁확 진
▁키 우
▁아무개 :
하 듯
▁버 려
정 당
▁어디 에
▁인생 을
▁8 5
중 의
▁여기 에서
▁영향 으로
▁ 촌
▁어 서
▁이 겨
▁코 리아
▁쳐 다보
▁ 팝
▁감독 의
▁북 핵
▁I I
▁당 해
▁소 금
▁누 워
다니 는
▁사실 이다.
▁1 

▁김 만
▁바라 보는
▁컨 트롤
▁상 대의
▁사업 에
▁인도 네시아
▁ 씹
▁원 활
▁계 시
▁국방 부
▁높 여
▁블 록
▁계획 이다.
▁성 폭
( 약
▁수 를
▁어 우
▁내 정
▁ 턴
▁문제 와
▁친 환경
▁최 대의
▁지 키는
▁그러 다가
▁배 운
▁아 쉽
▁대 원
▁짓 을
▁I M
▁전 의
였 을
▁방 치
▁국정 원
▁시 전
▁대단 한
▁F TA
등 의
▁시 에
▁N ew
▁ 닌
▁199 1년
▁데이 비
▁5 9
▁잘 라
측 이
란 이
▁걸 고
▁웃 음을
▁포 항
니 를
▁예 쁘
요 !

s .
동 맹
혔 다.
▁날 짜
▁전 신
.2 %
▁5 7
▁쌓 아
▁괜찮 은
▁본 인은
당 할
나 

▁ 혀
▁18 7
▁삼성 전자
▁첫 째,
▁교 수가
▁통 보
▁상 반기
▁수 면
▁" 나는
▁다 짐
▁부른 다.
▁이어 서
▁바 가
▁둘 째,
▁9 시
루 의
▁요구 를
▁오 고
▁무엇 보다도
▁인 종
▁젊은 이
▁운영 하고
▁전 진
▁차 원의
▁장면 을
▁의 문
히 지
▁지방 의
~ 6
강 을
▁지 능
건 ,
▁생각 보다
▁화 물
았 고,
▁위험 이
▁1 .5
이었 습니다.
접 한
하지 도
▁단 위
▁쓰레 기
▁피 고
시 리즈
편 을
▁급 증
▁앞 장
▁않는 다
▁원래 는
하면서 ,
마 리
▁당 국
산 과
▁이 진:
▁여기 저
2 .
▁목 격
▁지방 자치
▁고 소
▁김 민
▁일으 켰
구 (
▁구 제
▁건 국
가 스
▁이 은
계 에서
▁문 헌
년 이
▁ 폼
.3 %
▁녹 음
드 라마
걸 :
: 1
미 ,
▁부드러 운
네 

▁무 효
▁보 자
▁사라 진
파 크
하고 도
▁경찰 이
▁소프트 웨어
프로 그램
▁# 아
▁제 6
▁극 대
▁대 목
▁대 가
▁소 외
▁방 식이
▁예 정이
되었 다는
▁학 원
샐 러
▁25 0
▁w ith
▁플 로
반 을
▁이 순
▁실 종
- 10
루 스
▁지 표
▁초 등
층 을
▁스 펙
▁기 뻐
▁꿈 꾸
▁포 지션
론 에
어 지고
했 다면
또 는
친 구
고 속
▁대부분 은
▁어렵 게
학 이
▁3 0년
▁커 버
▁안 드로
세 와
▁증가 한
▁그래 픽
쳐 서
▁사람 으로
▁보 충
▁끝 이
▁간 담
▁다 녔
▁서 류
▁결 성
▁한 화
▁반대 하는
▁동 참
▁철저 한
▁크 레
개 ,
편 ,
▁표 정으로
▁갑 작
▁없 지
▁5 4
판 은
er n
▁방 기
▁국민 을
▁사람 들과
▁이하 의
▁반응 이
▁개 시
▁알 리
온 다.
▁자 제
파 로
▁내 외
p t
▁합 성
▁뒷 받침
▁주 간
▁최 순
▁진행 되는
▁구 원
▁U S
6 ,
▁이윤 정:
임 금
▁일으 켜
▁탁 월
▁청 주
▁이어 질
▁밥 을
▁알아 보
▁하 려고
u g
▁후보 로
▁선 수가
▁정도 를
▁그런 지
▁이벤 트를
▁창 원
교 가
지 대
▁에 드
▁건 의
▁고 령
▁히 트
억 원의
▁기 대를
" (
M A
▁ 껍
▁눈 빛
▁부담 이
였 다는
▁ 솜
▁시 야
▁시 리아
▁갈등 을
는 가?
8 ,
올 로
▁창 립
` `
▁전체 가
▁수요 가
.2 5
▁수 단
어 요

▁일 환
▁비교 해
대 문
시 다.
▁억 압
▁그 들에게
▁물 려
▁ 쭉
연구 원
▁영 남
▁없 던
▁방문 해
적이 며
▁알렉 산
소 리가
▁밤 에
▁버 그
▁이강 환:
▁이 원
▁확 률이
▁견 제
▁운 송
▁단 행
▁결혼 을
밀 히
▁카 카오
크 래프트
▁최 강
보 로
아 파트
▁즐 기
▁필요 하다고
▁수 천
▁장 점
▁베 네
▁텍 스트
▁마 르크
▁내 밀
▁아 들을
L L
▁ 퓨
▁국민 들의
▁가난 한
▁후 배
( 200
이라고 도
▁` `
드 레
▁주 행
E S
규 :
, ,
▁솔직 히
씨 와
▁--- -

의 의
소 녀
동 물
▁내 릴
▁수술 을
슈 타
▁특히 ,
▁"그 럼
친 다.
▁고 문
▁활용 할
▁ 컵
▁실 력
소 리를
▁영향 력을
▁의 결
해 왔
▁스페 셜
9 5
▁측 근
▁진 료
▁모양 의
▁ 쉴
▁동 성
로 와
▁화장 품
▁잔 뜩
▁제 이
▁상관 없이
▁불 만을
▁청 소
▁뒤 에서
마 에
▁도 모
▁태 도
▁페 이지
▁인 격
▁18 6
졌 고
▁프 라이
▁몹 시
▁근처 에
▁딱 히
▁당 당
▁식 사를
▁제 어
▁일 일
▁훈련 을
▁커 플
a w
( 大
▁결과 적으로
4 

▁투 수
▁ 늑
작 은
▁정보 통신
▁정 황
▁취 약
▁ 룰
▁선 포
▁보 컬
▁안 의
▁한국 을
▁이 득
▁유럽 의
▁의 회
▁신 념
▁총 괄
이 닝
시켰 다.

▁온 몸
▁임 진
▁사용 하여
▁원 정
▁경 유
그 라
▁속 도로
▁하루 에
▁결 론을
▁국내 에서
▁문 서를
▁용 의
▁한국 은
▁마 약
▁이 시
▁불 렀
진 과
.4 %
중 을
▁피 할
풍 이
요 !
▁크 기
▁ 롱
용 을
E N
▁ 밭
▁위치 에
생 이
▁끔 찍
▁아이 들의
▁것이 며
신 (
▁두 루
▁데 다
▁ 젠
▁피해 자
▁"그 런
처 를
▁트 랙
a h
▁혐 의를
현 의
▁오랜 만에
▁대 충
▁여 자의
코 는
▁세 상의
고 속도로
▁열 쇠
등 이
▁맑 은
억원 ,
인 사
힌 다.
T he
▁ 삐
정책 을
▁없 다면
▁조금 만
▁ 죠
▁ 즈
모 의
▁필요 는
▁오늘 의
국 ,
▁공개 된
▁자 발
연 은
▁각 성
▁198 9년
한 을
▁감 지
론 적
▁알아 야
▁지 붕
담 당
▁에너 지를
▁프로 세
▁입 에
▁보 다는
▁찾 은
▁얼굴 로
▁이름 의
▁외 면
▁과 장
▁허 위
▁남 해
서 에서
코 가
▁사회 에서
들 만
▁감 싸
▁어 딘
▁역 사가
▁평 창
▁경찰 에
▁무료 로
▁5 만
▁예 전에
▁ 훗
▁ 낡
7 ,
▁무 소속
▁기억 을
▁가져 다
▁공동 체
▁평가 가
었 으며,
우 ,
▁ 꾀
내 지
시 장의
▁클 리
▁반도 체
▁끝 났
▁ 펠
O C
▁못 하면
▁강조 했다.
▁양 반
군 ,
▁중 동
▁웃 음
▁최희 준:
▁있었 으나
▁공동 으로
▁죄 를
▁동 굴
호 

▁노 르
▁알 파
▁이곳 에서
▁정상 적인
▁역사 

세 기에
▁된 다면
( J
▁일 주일
▁발 간
▁ >
▁스 키
▁튀 어나
▁과정 에
▁경 기가
▁똑 같
▁받 기
하거나 ,
▁아이 폰
만큼 은
▁5 천
주 었다.
▁김 병
속 으로
았 다는
푸 드
▁방 에
▁후 에도
▁장관 이
혜 :
▁서 브
내 에
▁상 향
▁비 하면
▁밖 의
▁박종 진:
▁작 가가
▁데 에
▁19 세기
▁만나 게
▁선 사
▁토 끼
▁정 해
▁죄 송
▁도 둑
▁선 을
▁포 착
들 인
▁마 리아
▁어 떨
할 때
▁시 술
▁팀 을
▁서울 의
인터 넷
s 

▁시 를
▁ 탕
열 을
작 가
▁추 세
석 ,
▁예 로
▁조선 의
▁되 는데,
방 울
▁6 6
이었 으나
▁ 헝
▁원 인을
▁ 겐
▁ 씌
▁포 스트
▁원 장은
▁ 얹
▁뛰어 넘
▁것 "
▁영업 이익
일 으
▁걸 친
▁기 대한
▁박정 희
/ 0
▁써 야
er e
▁독 재
▁김 찬
▁E n
위원회 가
해야 만
▁뭐 라고
▁와 중에
▁감 동
미 야
미 한
▁발 라
자 연
▁위 주로
스 피
▁줄어 든
▁3 천
▁되돌 아
▁모니 터
▁것이 란
▁유 학
▁선택 할
▁흐름 을
▁들어 오는
오 카
▁분야 에
▁재 발
▁장애 인
라이 언
▁역 설
조차 도
▁파 라
해 줄
▁재 직
지 나
▁예 언
▁의 식을
▁정보 가
격 으로
.6 %
a ch
▁무엇 인지
법 ,
▁만든 다.
호 와
▁신 임
▁ _
▁모 티브
트 에서
▁게임 이
▁협 상을
▁보여 줬
▁러 브
군 요.

▁198 8년
▁책 이
면서 ,
.7 %
▁198 7년
▁부 회
롭 고
▁유 아
님 과
▁제시 한
▁현 역
o ok
is s
속 의
▁불 이
이었 을
▁아이 디어
▁터 뜨
신 으로
프 리카
▁용 인
▁보유 한
▁적합 한
in st
▁않았 다는
D P
▁ 젤
) 인
메 이
in t
▁유리 한
가 에서
▁연 료
▁제 7
h y
출 판
▁ 엇
▁시 집
▁조 명
▁ 엎
▁이외 의
▁버 렸
병 의
급 한
▁사회 가
▁두 드러
▁지나 가
리 다
▁사 쿠
국 인
▁이 현
▁마 시고
익 을
▁고 무
▁기 가
▁트 레
였 습니다.
▁잡 혀
▁느끼 게
▁매 주
▁패 널
학 급
▁김 준
▁입 원
▁시 상
ct ion
▁정 동
억원 으로
.8 %
마 크
▁아 티
▁양 이
으 론
▁개인 적인
▁치 는
▁한 강
▁계 신
B M
▁스 킨
▁배 포
▁: 

▁중국 과
▁없 는데
▁신 학
▁문화 의
▁되 기도
▁다음 은
▁영화 의
ter n
▁성 우는
▁쪽 이
▁형 식으로
- 19
▁불 평
버 려
되 던
▁선 도
▁적 혀
▁퇴 직
▁들 었다.

▁식 량
▁돌 입
▁조 리
▁호 기
▁무 섭
여 자
공 의
▁고객 의
▁마 크
좋 아
▁들어 보
장 에게
청 의
▁시작 해
▁활용 해
▁무 산
▁제공 할
규 칙
▁재 난
▁특 이한
▁변화 에
▁크 림
▁차 원
린 의
▁캠 프
백 을
▁각 자
▁한 꺼
iv ers
▁배경 으로
심 은
▁바 위
▁눌 러
데 스
준 비
▁치 유
▁인 하
▁높 다.

▁노 력이
▁뜻 하는
▁아내 가
▁위 장
▁예 쁜
▁미 나
▁식 당
▁올 랐다.
▁전 송
해 의
▁지켜 보
▁중 순
▁( 1)
( 대표
▁R e
▁취 향
오 프
이 사
호 에
시 기
▁돌아 가는
▁내 면
▁스 프
▁사태 가
▁밴 드
▁나 카
▁죽음 의
▁생 생
▁않았 다고
▁박 지원
▁y ou
▁ 읍
▁자 이
추 는
▁벤 처
▁관 리를
▁수준 이
▁곳곳 에
모 는
리 :
▁순 환
공 학
▁주인공 이
스티 벌
▁ 꽉
▁의 학
인 치
재 단
▁스트 레스
▁이것 도
▁수 련
▁대 상을
▁ ch
간 을
▁찾아 볼
▁얻 게
▁응 용
▁기온 이
영 업
▁감독 이
▁6 시
▁고 교
통 일
▁관계 는
▁죽 고
되었 으며
▁점 프
계 와
▁한꺼 번에
▁특징 을
주 교
경 (
is m
▁ 00
▁중국 에서
▁공 업
▁포함 된
해 준
▁관 통
▁임 무를
) ᆞ
▁바 퀴
이트 를
옵 니다.
▁즐 거운
나 ?
▁코 믹
▁싸 우는
▁치열 한
e at
▁인생 의
▁독 서
▁방 위
▁불러 일으
▁화 염
▁책 의
▁실 수
겠 지만,
▁조 약
스트 라
▁바 꿀
▁판 타
▁자 매
▁문 의
하 실
▁가 죽
4 4
I P
▁손 상
▁금 액
당 하는
봉 사
▁무 지
세 한
▁부 끄러
▁메 가
▁존재 가
▁이재 용:
▁만약 에
▁사 형
▁삼 십
▁프 라
▁진 실을
▁조 그
( 7
▁다음 으로
▁더욱 이
세 ,
▁승 진
▁장 치
▁비 율이
▁목 사
리 라는
▁손 이
▁감 수
관 

니까 ?"

판 의
▁논 의를
▁최진 봉:
▁트 로
재 :
▁양 자
실 과
▁회 사를
▁논 문
▁ 쇄
▁민 생
▁필요 하다.

하 다면
▁미래 의
▁고 성
▁내 렸
키 스탄
▁구 사
▁일러 스트
▁찾 고
간 다.

▁방기 연:
ic k
추 진
차 게
화 되고
▁상 의
▁배우 는
▁편 .
▁화 폐
▁건 네
▁한마디 로
▁ 볶
▁상 장
▁' 사
감 사
▁찍 은
▁없 도록
마저 도
or ld
기 자
▁지 고
▁5 8
▁동아 시아
합 의
▁음 료
▁개 를
▁같아 요.

▁무 거운
계 로
M B
▁가격 을
▁병 행
린 은
▁있 긴
하였 으며
.9 %
주 얼
열 :
▁2 ~3
▁태 평양
▁스 미
▁몰 라도
3 .
▁자 세를
▁나 지
▁지 목
▁오 면
▁말 았다.

on ,
▁귀 를
▁머 리카
채 를
▁사 막
▁대 접
▁아직 까지
▁후 지
▁더 러
▁가족 이
▁양 의
▁200 9
▁정 무
▁되었 고
▁오늘 도
000 원
▁장 례
▁열린 우리
하고 

▁어려 움
심 에
▁세 상이
시간 을
▁알 아서
.c o.kr
쾌 한
▁ !
▁200 8
▁유 해
▁협 력을
▁"지 금
었 으나
▁아버 지를
링 을
파 이
▁산 하
▁동 화
▁" 최
▁못 했
▁아닐 까
습니다. "

( 증)
부 처
▁아 일랜드
▁대 동
풍 을
▁어 머
▁재 활
밀 하게
▁막 대한
위원 회의
▁역사 상
▁많 을
주 도
▁남 자의
어요. "

o y
▁누 리
런 스
▁드 립
▁마 라
▁제공 하고
▁학교 에서
▁보내 고
▁주목 을
▁세 우고
놀 이
▁차 이는
▁당신 을
▁좋 다고
▁정치 를
▁칼 을
▁사 마
▁전 세
▁신 성
▁베 를
▁아름 답
▁ 굶
▁안 진
▁중 도
▁제품 은
본 을
▁4 차
먹 을
만원 ,
▁봤 을
▁천 재
▁기자회 견
▁노 사
▁분명 한
G M
지 능
▁맛 집
▁5 1
▁머 리에
▁줄 을
▁말 했
▁무 상
▁활용 한
▁당부 했다.

▁중국 에
사 태
▁광 범위
▁거 지
하자 ,
▁유 키
달 아
▁발 의
▁해결 할
▁ 에는
슨 은
▁여의 도
카 를
▁돋 보
▁양 념
▁3 번
▁부 실
▁최 상
▁이 태
▁반 짝
▁갖 춰
F C
▁세계 적으로
▁: :
▁안전 한
▁결정 적인
▁서 식
▁5 ,
림 의
▁후 기
지 기도
마 한
▁극 히
▁저 자는
▁싱가 포르
▁자 칫
▁일 정을
래 :
▁왠 지
플 러
여 성
▁여 지가
찰 을
데 

▁근본 적인
▁노 벨
▁직 면
▁한 달
▁권한 을
▁생각 도
▁없 으며,
▁들어 갔다.
있 고
대 장
▁분 들
▁조직 의
▁노 후
▁나 고
년 의
▁영 하
적 (
▁올해 는
▁" 고
▁제 휴
▁수익 을
할 지
▁국 경
▁있을 지
령 은
▁사라 져
합 을
셔 널
▁되 며,
다 '는
▁클 라우
▁환 자가
▁정 수
▁고 쳐
▁루 이
말 이
▁영화 는
▁때문 이었다.
▁줄 여
▁메이 저
께 서는
▁ 뱃
▁착 수
▁사용 하면
▁환 상
▁등 이다.

▁중 재
▁목 적이
▁피 가
▁훗 날
▁그녀 에게
▁분 산
▁전략 적
▁교 회의
▁폭 행
▁쓰 기
▁6 00
▁회 수
주년 을
▁파 고
O U
▁반면 에
▁얻 기
▁꼼 꼼
▁6 자회담
▁M P
▁완벽 하게
▁되었 다고
it ion
▁개발 을
t o
여 명이
▁소 식이
▁그곳 에서
▁대 조
▁의원 을
▁사 드
▁아니 ,
사 키
▁ 첩
▁201 1
▁ 톰
형 ,
▁이 쪽
▁공식 적으로
▁국민의 당
▁관계 로
▁마음 은
어 리
어 질
▁이 의
▁때문 이
야 

▁때 려
▁ 톤
체 험
음 ,
▁트 럭
▁안타 깝
▁귀 찮
드 에서
▁가 구
▁무 인
▁예 산을
▁초반 에
▁작 가는
카 는
▁보 물
▁타이 밍
역 ,
▁가라 앉
▁모 은
▁교 도
혁 신
▁포함 되어
▁교 훈
▁순 수한
▁요 소가
▁않 다고
▁노 릇
수 산
▁인 적
▁단 말
▁달 고
과정 에서
▁클 로
▁사실 에
▁쓰 여
▁피 곤
▁실시 한
▁필요 할
당 하고
▁판단 을
분 으로
▁이해 를
▁장 원
▁육 체
▁야 외
▁받 으며
▁당 분간
▁들 지
▁붙 은
▁자신 들이
겠 지
미 와
r u
▁ 大
오 스
▁기 둥
▁한 계를
ol d
▁박 상
위원 장은
▁P S
▁서 둘러
▁말 레이
▁여 자를
▁1 ,000
랐 다.

▁병 원에
▁정 한
통 상
▁기록 이
▁알 레
▁벌 이고
**** ****
나 가는
▁수 습
▁있었 지만,
▁일 요일
▁유지 하는
더 러
( www.
리 온
▁1 층
▁잉 글
▁만 만
▁16 0
▁습 득
위원 회를
▁제임 스
▁피 로
▁비용 이
▁회 장이
▁경쟁 력을
▁( 2)
▁조 만
▁중 계
▁돼 지
았 고
▁싶 다.
현 이
▁F I
루 는
▁신 도
▁총 리가
▁읽 을
▁한 명
▁확실 하게
해 양
▁주 둔
an n
에 겐
p e
▁빛 이
▁주 된
▁백 악
▁게 재
▁건강 을
( 李
▁중 장
▁소 중
▁올 리고
▁학생 들의
▁근거 로
▁친 일
건 으로
▁넘 치는
▁피 의
▁스튜 디오
자 리에
▁제품 의
▁없 으며
▁나 이에
▁끌어 올
▁하나 하나
리포 니아
금 지
▁신 입
▁ 캄
▁도와 주
rig ht
▁성 을
▁터 져
▁사이 가
▁입 술
▁디자 이너
▁매 도
▁군 의
▁만 성
▁보 낼
▁재 산을
고 로
▁좌 절
▁것 임을
▁장 을
▁말 까지
▁하는 지
▁따 르는
▁ 톱
▁김국 진:
▁방문 한
▁세 금을
▁아 픔
▁음 ~
▁콜 라
▁지 극
어 에
차 량
▁않는 다면
▁발견 된
▁학 부모
▁세 력이
▁여 동생
▁축 적
▁6 .
A D
정 부의
▁박 수
지 마
i le
i x
거 를
파 이어
▁역 으로
희 의
▁삶 에
▁시작 할
▁들어 올
▁규정 하고
▁서로 의
▁뿐 이다.

▁결 제
▁없 으니
▁주 머니
▁길 은
▁있어 .
▁뒤 에는
) 에게
▁컨 설
▁밖 에서
결 정
▁자유한국 당
- 6
▁간 혹
5 ,
▁분 할
▁김 해
▁발표 했다.
▁솔 루션
▁I C
▁바이 러
좋 은
감 으로
▁가슴 을
▁가 기
▁199 0년대
▁물론 이고
시켜 야
▁민족 의
▁A .
취 를
▁" 다
▁C C
독 한
▁기반 을
▁발 급
.1 1
됐 다는
▁그 간
▁의 장
▁노동 자
금 으로
우 지
▁캐릭터 가
▁ 

▁저 질
▁진 심으로
▁아니 고,
▁상 반
▁쓰 면
리 안
변 을
도 르
디 가
▁어느 정도
▁내 야
화 될
였 는데
▁급 속
들 여
▁# 육아
▁가슴 에
▁늘 고
대 

▁즉 위
▁진 상
id e
았 습니다.
▁적 당한
불 을
하였 던
▁체 력이
피 를
▁시 티
▁날 개
▁10 개
류 는
c al
각 이
▁성공 적으로
▁E X
▁마 녀
▁국제 공항
물 ,
' 이란
발 의
▁타 당
▁출 장
▁5 3
▁전 했다.
▁삼 각
▁자체 의
▁2 주
▁타 는
▁살 피
▁상 기
▁외 에는
▁골 목
영 을
▁리 듬
▁검찰 이
▁서 명
▁' 오
▁G S
천 의
▁지 진
▁저 의
▁바 꾼
▁ 랩
▁마 나
▁저 를
▁놀 란
▁엄 격
▁승 격
▁야 권
하 우
간 이
▁차 세대
▁박 사는
▁때문 입니다.
▁집 이
▁사 립
▁이 모
▁아 메리카
▁저 격
▁코 미
원 들은
▁포 털
▁후보 자
민 은
▁나 란히
ig n
▁예예 .

▁냉 장
▁나섰 다.
▁자연 의
▁있 듯이
셨 다.
an ce
▁외교 부
▁철 수
▁정 해진
▁재미 있는
▁말 아야
▁까 다
▁실 력을
▁은 혜
▁헤 드
라 노
▁의혹 이
▁물 결
▁엄마 는
▁불 확
▁ 샀
▁법 이
▁10 대
▁아무 튼
▁갈등 이
▁서울특별 시
▁있었 다
영 ,
▁고 집
▁전체 적인
어 ."

▁한국 이
섰 다.

▁S S
▁혼 합
O M
▁구 상
▁있 다"면서
▁수 의
음 과
▁도 는
▁C l
▁효과 는
on s
▁오 스
▁선택 한
하자 .
버 리고
마 ,
▁시간 과
언 이
▁알 리는
▁간단 히
▁이뤄 진
구 성
▁창 설
중 에는
▁스스로 를
▁편 지
심 사
▁유 인
▁후 회
▁수 여
▁득 표
▁부 당
단 에서
▁화 재
▁나오 면
▁어깨 를
▁복 용
.1 2
▁지 냈
▁검 사를
▁적 게
▁동영 상
기 나
른 다.
▁라이 프
▁본 부
▁도 구
나 요?
▁설 문
O L
(19 9
▁튼 튼
▁비 틀
▁이 나
▁지 분
▁권 위
제 작
용 품
~ 8
▁중 세
▁상 속
▁길 에
▁몸 의
▁자 기를
회 (
▁논의 가
▁무 난
▁먹 었
▁염 려
▁화 성
on e
▁지나 면
▁' 어
▁이 길
▁반 성
▁함 부로
▁흥 분
▁조 달
▁밝히 고
▁종 로
▁정 답
달 라는
▁오 사카
▁자 금을
i et
▁하 니까
▁그렇 습니다.
▁지 칭
▁오스트 리아
단 

▁모 스크
▁계획 이
▁단 호
미 

▁않았 고
▁198 0년대
▁위험 을
이라 면서
심 과
이에 요.
▁안정 적인
▁각 기
▁강 연
▁김만 흠
▁난 이도
마 켓
▁한 계가
머 스
았 지만
▁만 다.
▁힘 입
투 쟁
▁감 정이
▁강 제로
▁마음 대로
▁ 펄
▁이상 은
티 아
▁단 속
월 드
▁소 규모
▁S P
▁잇 는
▁양 지
▁음 주
▁# 일상
▁바꾸 는
▁때문 인지
▁염 두에
▁유 연
▁ 템
▁쪽 에
▁뛰 어들
▁대 놓고
▁" 김
▁과 일
협 정
버 린다.
▁아 테
▁비서 실
▁효과 적으로
▁J .
▁때문 이라고
표 가
▁되 며
▁활동 에
▁정치 인
▁일부 는
▁이집 트
▁강 행
▁최 후의
V E
▁적 발
▁계 곡
▁덕 에
▁있으 니까
래 의
▁자 문
6 

▁신뢰 를
▁클래 식
▁탈 북
는 지는
▁골 라
▁ 놔
후 에
▁N H
어 보
▁추 모
역 은
움 과
한 이
▁삽 입
▁추 석
▁" 왜
박 을
하 라.
▁양 승
▁원칙 을
▁학생 들은
▁나타 날
▁담 배를
▁놀 이
▁인 테
▁김 미
▁있 습니다
절 로
민주 연합
▁더 해
▁펀 드
▁"지 난
▁7 시
▁움직 임을
▁않았 고,
▁사례 를
화 학
워 야
▁서로 를
▁사 도
▁우 유
▁처 녀
▁핵 실험
▁내 장
▁일 이었다.
▁20 세기
형 에
체 인
▁무 작
으 신
▁실 정
▁저렴 한
판 에서
길 에
지 수
▁옹 호
디 는
▁2 위
▁입 장에
▁ 닉
▁처 럼
▁날 씨가
▁싸 움을
▁고객 이
▁두 는
▁' 신
수 술
정 신
▁회 사에
▁과도 한
▁필요 하다는
▁폴 란드
▁도 중에
교육 을
▁선 행
▁같 아서
봤 다.

▁것은 ,
ou nd
a f
▁공공 기관
▁지 는
▁차 관
▁진행 되고
▁보 병
▁리 가
▁부모 가
▁이 병
참 여
백 만
▁자유 로운
반 의
▁참여 할
야 의
▁퍼 져
▁죽 여
▁시간 의
▁열 차
업 무
검 찰
▁선거 에서
▁부 임
▁후 계
▁모양 이
창 을
보 건
▁팔 레
부 인
▁일 명
▁바랍 니다.
▁동 서
▁진행 하고
▁주 신
▁강 도
▁ lo
▁김 치
▁정 교
▁성능 을
▁레 오
▁C P
▁얼마 든지
▁김찬 호:
▁나섰 다.

▁S U
정상 회담
레 를
▁진행 하는
겠 다.

▁표 명
▁수준 에
▁도 요
▁코 드
총 을
7 

이었 는데
' 도
▁아이템 을
▁슬 로
희 가
의 로
) 이라는
▁동 방
▁내용 에
▁유지 할
▁흥 행
▁간 신
▁군 대를
즈 키
▁총 을
▁뒤 늦게
▁학생 이
ac e
락 이
A P
▁러시아 의
▁상대 방
▁여 부
다시 피
▁주 사
보 드
▁캘 리포니아
채 널
▁자동 으로
▁넣 은
▁듀 얼
▁ j
▁관련 하여
▁우승 을
▁철저 하게
▁오 오
▁미세먼 지
▁저 축
과 

▁같 았다.

▁미래 에
▁어 긋
문 제를
▁내 리고
▁연 봉
▁제 안을
( U
▁북한 을
▁얼 른
00 년
▁수 소
공 연
▁" 모
▁앉 아서
▁수 렴
▁관 하여
▁나타나 고
▁내 륙
▁세 력을
▁참 전
▁개인 적으로
원 들의
▁신 종
▁모델 을
들 보다
8 

▁아 미
▁순 위
▁학교 를
▁다이 아
▁행 운
▁어떻게 든
▁현대 차
▁약 을
▁마지막 에
론 가
▁시 대가
긴 다.
해 .
▁습 격
복 이
▁갔 다
니 

▁지 위를
▁서울 에서
▁춤 을
a x
▁살펴 보면
▁급 여
▁역 전
▁죽 인
▁살 이
▁내 비
▁담당 하는
▁미 야
▁추진 하고
▁올 렸
▁번 의
▁ 웰
원 인
▁세 상에서
▁변 동
▁B M
▁없 습니다.

▁E x
▁물 었다.
" 며
T S
▁구 석
▁토 마
▁ 싼
무 늬
레 일
▁이외 에
▁사건 으로
▁데이터 를
▁벼 슬
▁높 고
식 에서
▁도착 한
( c
▁13 0
▁개발 에
▁ 꿰
▁내 어
▁아 랫
it e
▁감 히
보 단
▁예 능
▁기다 리는
적 이지
▁오 르는
▁w h
▁도시 의
▁군 인
계 열
형 태
▁지 경
▁포 트
▁지 적이
▁세 련
함 으로
▁진 주
7 9
▁이루어 지는
▁아 ,
▁박 성
▁수 신
▁ an
작 품
▁고 스
= "
▁상 무
▁채 무
▁부 유
▁활동 이
ou s
▁11 시
▁번 씩
선 (
▁더 더
▁ 햄
▁곳 이다.
▁옆 에서
▁금 리
▁부 착
▁순 으로
5 

; 

▁백 제
란 의
▁ 퀴
겨 져
건 은
▁올 릴
▁지 각
▁개 가
▁김만흠 :
▁본 능
▁가능 할
▁예 배
▁비 평
▁셋 째
p r
용 의
▁' 대
▁실 은
▁이어 진
지역 의
▁신 장
▁야 기
단 다.
▁국 어
▁B l
▁엑 스
▁대법 원
적 

8 4
▁헤 이
권 으로
▁앞 둔
조 ,
▁일으 키는
▁인 식이
받 았다.
▁여 왕
in k
속 도
▁회의 에서
증 은
▁주 식을
▁막 는
▁문 득
▁비슷 하게
T N
주의 에
급 이
되 는데
▁뜻 으로
▁가 이드
▁빨 라
▁일 련의
▁효과 적인
▁' 가
아 트
▁끝 날
배 :
았 다
▁고 도
▁눈 물이
▁용 산
과 에
야 ."

▁지키 고
▁줄 기
▁중 고
▁위 축
군 으로
▁크리스 마스
▁애 국
능 력을
▁ at
▁열 매
▁지도 자
▁언젠 가
▁실 려
▁무 대에
▁기업 은
트 :
였 기
▁ it
▁3 000
▁필 살
▁나타 내
▁성 실
리 던
▁상 하
▁클린 턴
▁가까 워
▁버 렸다.
▁비정 규
▁후 퇴
▁레 인
▁소재 로
▁용 병
▁승 용
오 지
▁위원 장
▁미 드
▁반 사
▁팔 아
O P
▁주 류
▁토 요일
▁이데 올로
▁때 

▁포르 투
였 으나
주의 와
▁평 등
임 은
▁나 폴
▁인 식을
감 도
▁호 응
▁마 술
소 비
▁부 가
▁정 서
▁속 한
▁정책 에
는지 ,
▁기업 들이
▁대표 를
▁장 교
정 

▁글 이
▁편 하게
▁조 항
▁기다 려
공화 국
▁촉구 했다.

▁아 트
▁6 년
▁중 대
▁예 컨대
▁어느 새
우 주
▁야 생
▁특 수한
▁오 를
▁합 의를
▁냄새 가
▁이해 하고
▁아래 에
▁틀 어
▁11 0
▁같 고
_ {
▁성 적을
▁조 국
▁뭐 냐
▁저 하
있 어
▁진 압
▁고 조
▁비롯 하여
▁민주 화
▁3 회
▁갖 다
허 가
▁모 리
하 루
▁없 다"며
시간 에
▁막 상
▁그러 던
▁번째 로
과 정을
▁점 수를
▁아나 운
▁주 의를
▁ 료
er v
▁상 용
▁야 간
▁가 령
▁자 란
▁컨 텐츠
▁연구 에
▁가능 하게
▁중요 성을
▁수 직
▁지역 으로
▁늙 은
▁최 병
되었 는데,
▁용 이
해주 고
▁ 쉐
▁시절 에
코 올
▁썼 다.
구 리
토 는
▁알 바
▁대 성
▁안진 걸:
▁레 스토
▁4 만
▁돕 는
▁버 리는
▁비례 대표
기업 의
▁공간 이
▁낯 선
▁유 전자
▁손 잡
▁간 섭
▁벌 인
▁한 결
더 스
▁있 기에
▁여성 은
▁나 눈
▁문 장
호 (
▁주 위
▁경제 가
▁P l
습니까 ?"

다 의
▁" 일
▁말 해서
▁정 성
▁제외 하고
▁사이 로
or g
▁197 0년
▁진행 할
▁주장 하고
▁' 한
▁오 십
▁임 기
# 

▁간 다.
▁농 담
▁학 살
산 에서
▁참 모
지 검
▁추 상
▁조직 을
▁들어 왔
▁간 편
확 인
식 

초 를
▁6 7
▁마 늘
▁기 체
▁" 

즈 

▁전투 에서
▁급격 히
▁너 머
▁이 호
19 년
▁적당 히
▁7 년
▁않 으며
▁미 스
시키 지
▁징 계
▁결정 하는
상 공
▁힘들 어
▁떨어 지
▁조만 간
▁또 다른
▁민 동
▁사망 한
하 니까
▁강조 하는
학 회
▁패 치
▁ 론
▁거 칠
▁아저 씨
▁해 병
▁티 켓
▁교 섭
▁말 과
▁추 출
리 얼
▁퇴 근
▁K B
답 니다.

입니다. "

▁베 어
▁S M
마 루
▁없 지만,
▁다시 는
하 곤
▁길 로
▁아 오
▁이후 ,
▁완 공
▁10 분
▁D e
▁' 제
나 서
9 ,
팀 의
▁열 었다.

▁저작 권
▁H e
구 청
가 게
▁따 져
▁여기저 기
▁걸 음
나 갈
방 지
스 에게
▁가지 가
▁마 인
▁제 네
하 되
▁주 인이
▁연 휴
▁필요 성을
▁N o
▁크 리
▁보 이며
▁' 고
BS )
▁민 정
레 는
▁나 빠
▁다양 하게
▁건 지
▁행동 이
▁주 주
대 (
▁더 이상
청 문
세 .
▁생 일
▁유 독
▁풍 경
▁미국 을
법 상
다 나
▁끝 으로
담 한
▁3 학년
▁여 신
▁뒤집 어
▁그곳 에
위 해
▁번 에
▁소개 

▁몰 고
▁등 ,
▁H D
▁어 렸을
▁고 추
▁이 치
▁기준 이
▁안 동
om e
▁( S
▁브 로
▁뜻 이다.
▁친 절
▁대 치
▁광 복
▁짓 고
수 익
▁18 5
▁제외 하고는
▁돌아 왔
▁2 인
▁찾 지
▁최 후
▁암 흑
▁ al
▁한 해
▁폭 풍
▁가 운
건 에
되 도록
인데 도
어 요?

le t
▁자 부
▁청와 대는
▁수 시로
▁박 연
▁있 거나
▁개념 이
▁미 치
해 요.
▁남 는
조 와
▁바랍 니다.

▁타 격을
장 치
▁걸 리는
내 가
▁사랑 이
▁품 고
▁해 운
▁사람 ,
▁라 틴
▁삶 이
▁정 세
▁날 ,
▁라이 벌
▁나 서는
▁틀림 없
▁ 뺏
▁일방 적으로
▁말 하지
8 00
f r
▁도 심
▁씨 를
▁어울 리는
▁해 적
네 가
▁문 명
▁고 작
▁소 집
▁지 점
▁ 뚝
▁데미 지를
▁여 학생
▁대표 와
E T
▁아닌 데
▁" 뭐
▁ 샐러
▁늘 려
▁이 메
▁) 는
▁' 무
▁198 6년
▁그 해
▁저지 른
▁p ro
& D
▁처 형
▁직접 적으로
전 사
▁억 지로
▁들어가 서
▁로 버트
통 은
▁장 점이
드 려
▁8 시
▁합 법
막 이
▁제 로
▁초 록
▁납 부
▁사람 에
▁6 3
▁관련 해서
▁7 7
▁중 얼
▁기간 에
▁내놓 은
▁걱 정이
▁이 밖에
▁말 라고
▁조선 시대
▁커 지고
▁의원 과
▁해 산
▁제조 업
▁의 사가
▁둘 은
▁상대 방의
▁중 시
▁장 사
글 로
들 한테
▁1 명
주의 는
테 이
인 권
▁누군 가가
▁발 전에
▁전투 를
질 로
▁나 눌
▁실질 적으로
에서 

▁7 2
▁#다 이어트
▁대 의
진 에
▁감안 하면
수 )
▁쳐 다
베 이터
▁14 0
았 습니다.

▁제공 한다.

우 기
▁소 극
으 려는
▁제1 차
▁동 행
▁짓 는
▁0 1
▁ 똥
▁의미 는
▁" 안
▁유 적
▁이 광
▁부 수
▁원 인은
( s
▁불 명
▁미 만
▁이해 하는
▁상 영
▁따 르
론 과
▁자 리가
보 지
▁포 인
▁브 루
▁성장 경:
▁하 도록
▁가족 의
▁e x
▁치 즈
▁ 퀸
▁이어 지고
▁헌법 재판
▁조사 한
▁구 해
▁일 종
▁기대 하고
보 의
▁엉 덩
박 스
▁은 하
▁형 상
▁부 상을
▁무시 하고
포 로
▁끝 나는
▁지나 친
답 니다.
▁2 시
▁ 짤
- 9
주의 자
▁당 첨
▁대 지
이었 기
▁전 담
▁준 공
피 해
▁지역 이
▁구 할
.0 1
▁경상 북도
▁1 ~2
▁복 구
▁인 형
▁응 급
전 에서는
▁친 척
▁위치 해
▁봅 니다.
▁확 충
H E
▁S .
▁테 니
▁있을 까
▁있어 ,
▁" 앞
▁있는 가
랭 크
▁전 성
▁디 젤
감 의
▁제 자
▁대표 적
▁팀 은
▁생 략
▁경쟁 력
▁없 음
▁7 개
A L
▁어디까지 나
▁앞 세
▁기 생
▁듯 .

? "
이었 다는
▁" 제
예 요.
▁생 리
▁모 인
▁연구 가
▁위원 장이
가 서
( p
하였 는데,
▁표 면
편 으로
▁불 거
▁시스템 이
견 이
화 에서는
▁매니 저
린 을
리 한
▁M B
▁신 발
▁브 라운
전 시
▁곡 을
시 브
집 에서
▁국가 를
▁실 존
▁인 구가
▁198 5년
▁일본 인
▁모 범
▁나 한테
낸 다.

▁사태 를
▁3 )
▁부정 적
순 환
배 가
▁비중 을
▁번 호
키 를
▁기간 이
▁전반 적으로
▁오 락
▁자 를
▁사 나
▁유 물
▁신 형
로 써
▁소 용
▁예 의
▁5 000
▁전쟁 의
▁ 푹
▁반 란
▁지역 구
▁자 국
▁사 양
▁카 를
▁와 인
▁측 의
국 :
▁가능 성
되 는데,
▁원 거리
▁ 붐
▁한편 으로는
현 은
▁영원 한
▁부 친
▁패러 디
▁생 명의
▁" 공
▁딸 을
▁공 원
▁콘서 트
▁경 호
▁사진 이
상 승
▁치 킨
▁경쟁 을
▁광 고를
▁기존 에
▁난 민
라 니
증 ,
▁초 보
▁싶 을
대 출
▁200 7
▁전 락
▁김 무
현 실
▁유 산
▁내 부의
▁사업 이
▁ 됨
▁1 학년
▁오페 라
▁0 .5
작 이
▁편 이다.

▁같아 요.
▁법 원
▁요 소를
▁"오 늘
에 이
▁저 ~
▁권 고
▁목적 은
▁닥 터
▁유 승
로서 ,
▁( M
▁책임 이
▁불 필
▁스 포
▁M C
들과 는
벽 을
작 의
▁매 번
▁클 레
▁흑 인
▁김정 일
현 대
자 산
▁30 여
더니 ,
▁먹 기
사 상
▁준비 가
ag ram
▁자 ,
▁ 칩
▁어디 로
▁이 식
었 지만,
▁되었 습니다.
▁의미 의
▁있 음
졌 다
▁도덕 적
화 )
▁간신 히
으로 만
절 이
▁주 장은
▁제작 한
▁양 은
사 들은
▁조건 이
전 기
▁보 라
▁쫓 겨
▁소 울
▁드 릴
▁상 식
a z
▁노 부
주의 가
▁유 료
▁제 갈
▁감독 은
▁딸 이
트 릭
▁부모 의
~ 7
▁함 으로써
▁들여 다
▁벽 에
▁웃 으며
▁안드로 이드
류 ,
▁휴 가
▁마련 해
▁처 분
▁성 경
a )
▁대답 했다.

▁어 마
▁웹 사이트
▁설 탕
르 르
▁배 정
대 행
y st
밀 리
▁데 스
▁김 선
레 가
▁의 장은
▁사업 은
▁정도 에
▁고 난
▁주 가가
열 이
▁잉글 랜드
▁화 살
▁김 형
▁빠 르
▁바라 보고
재 정
▁싫어 하는
▁괜 히
▁청 산
▁철 거
▁마 시는
반 이
▁종 업
▁전 인
▁국 왕
a e
▁건 물을
▁제품 이
부 산
▁캐릭터 를
~ 10
▁레스토 랑
▁가 이
▁하면 ,
▁상 하이
▁바람 을
▁대답 을
요 ~

▁7 6
▁가지 게
선 

▁국회 에
▁" 한국
▁방 출
▁편 찬
신 청
야 구
▁하 수
▁문제 도
행 위를
▁전 철
교 도
데 일리
된 다면
듯 한
▁ 뿜
우 며
▁오프 닝
▁1인 당
▁이미 지가
▁ 휠
▁측 이
▁일 이다.

▁좀 비
▁가 지를
▁명 품
▁워 크
] ,
만 원을
▁짐 승
▁대통령 에
▁정 원
▁비 트
▁양 보
▁않 으며,
▁6 8
▁힘들 다.
▁' 비
▁능력 은
들 었다.
▁부 총
▁' 지
시 장에
▁투 기
▁방 패
미 에
▁2 억
▁중 대한
던 가
▁척 추
▁합리 적인
▁S c
▁솟 아
▁중국 을
▁문제 점을
▁민동 기:
▁다 닌
▁선택 을
▁시 기를
그 리
▁" 가
하 늘
▁베 이스
세 력
▁권 유
▁사 물
4 .
▁섬 유
▁받 으면
에 요.

▁들어가 면
소 프트
▁중 복
스 도
, 0
▁발견 한
▁ 힌
th er
감 하게
▁신 부
▁언론 에
▁맺 고
▁아이 들에게
쓰 고
▁협 약
▁늦 은
라 ."

▁사 안
▁보 냈다.
료 는
▁같 다고
▁승 부
▁소 지
▁시절 의
▁ 락
▁몰 락
하 길
▁194 5년
▁소 매
▁새정치 민주연합
▁요즘 은
▁세 탁
빛 이
▁원 의
▁추 격
▁주 면
▁이어 져
▁고 립
▁가 사
O T
▁옆 으로
er t
▁의 지가
▁신 한
▁용 어
▁설명 할
▁부 추
▁의원 들이
▁삶 은
▁교 장
▁소 문이
▁정부 를
▁달 콤
▁사 서
▁접 어들
▁분 기
▁하 야
▁A T
▁2 학년
다 를
▁관계 없이
나 .
▁ 콧
▁입 맛
▁낡 은
▁분 들은
▁표 정
▁블 라
" ,

▁아 바
사 에게
▁성 사
▁북 측
▁겪 는
▁ http://
▁산 책
임 에
코 

월 )
▁현 장에
▁견 디
▁G M
대 고
▁초 기에
▁발 음
▁지 루
▁활 약을
츠 를
▁일부 가
▁" 기
▁되 살
▁부 합
▁정부 에서
" 을
▁곁 에
▁많은 데
▁무 늬
통 의
▁탈 퇴
적으로 도
▁건 가
계획 을
\ math
아 아
오 리
▁' 미
▁태 국
코 드
▁순 천
차 

▁경제 의
▁자 고
▁인정 하고
▁다 큐
▁신문 은
▁말레이 시아
▁차량 을
▁다 이어
군 사
▁무 죄
▁분 해
▁ 썬
헨 티
▁영향 이
) 이라고
▁반 해
▁규모 는
▁이 숙이
냐 .
전 투
▁경 력
▁역 량을
▁입 는
▁바 쁘
▁쉽 다.
▁사용 이
▁심지어 는
▁풀 려
▁설치 된
판 으로
▁보 살
▁디스 플레이
▁공격 이
▁힘입 어
보 에
편 에서
본 다.
▁구체 적
▁시 카
▁셋 째,
맞 팔
▁간 행
▁교육 의
공 장
스 톤
▁보 석
▁전 승
▁사 흘
능 한
▁찾아 온
가 리
▁신 흥
▁리 버
파 에
▁받아들 일
▁안 겨
▁프 란
▁줄 일
▁업 종
부 족
▁기 사가
제 국
다 '
현 (
▁않았 기
▁벌 금
와 도
▁면 이
아 니
▁키 가
▁데미 지
어진 다.
▁f rom
츠 의
▁기 지
ro w
업 계
수 지
동 에서
▁필 연
V D
▁걸 릴
화 장
▁ 싣
▁그렇 고
데 이터
▁타 협
.com /
미 로
무 지
▁돌 이
3 00
야 ?
▁싶 다는
▁군사 적
▁쇼핑 몰
어 내
▁상황 이다.

▁크 기가
경 ,
▁목록 

놓 는
▁유 희
식 (
▁더더 욱
▁국내 에
▁당 하는
▁하 자.
팅 을
▁198 4년
▁영 문
학 에
때 는
▁배 당
▁환경 에
▁해 수
▁칼 로
들 에서
▁분석 했다.

▁8 8
어 ?
▁해 킹
▁속 이
타 르
▁먹 지
▁듣 지
포 가
▁괴 물
▁인정 하는
도 서관
▁있다 며
▁남아 있
▁8 개
▁공 익
란 한
▁' 마
탄 이
▁그 랜드
▁내용 으로
!! !

인 지는
▁전반 적인
▁내 렸다.
▁돌아 갈
▁불 만
▁내 수
분 과
▁표 정이
▁레 전
▁보건 복지
▁나라 에서
▁평 화를
▁빛 의
▁우 호
▁바 와
▁2 세
▁상 을
▁하 필
▁여 수
6 )
▁싶 어서
▁이용 해서
▁거래 를
라 기
드 릴
노 의
▁다 카
▁되 풀이
▁아 야
▁이숙이 :
▁돈 으로
(1 5
▁물어 보
조 치
▁규 범
▁V S
▁정치 권
▁떨어 질
▁다 해
▁신 은
관계 에
▁왔 다
▁남편 의
p ort
으 라고
▁제공 한다.
▁잇 따라
▁ 퀄
▁만들 어서
▁스트 라이
▁조 세
▁응 시
▁ 뱅
축 을
O D
▁넣 는
으면서 도
▁S ch
일 수록
길 :
감 ,
▁역 을
▁납 득
콜 릿
▁기술 의
어 머니
4 2
플 렉
었 다가
▁나머 지는
es ,
식 단
사 리
▁8 00
박 이
▁개 인이
▁심 어
▁D J
▁관 세
▁" 북한
~ 200
색 ,
▁영화 가
▁과 목
▁선생 님이
▁pp .
▁원 시
▁A R
▁갑 옷
▁6 9
▁했 기
니 즘
▁첫 날
▁순 서
▁골 든
▁교 차
▁두 산
▁탄 압
▁돌아 다니
여 름
▁최 적
질 은
▁나 라는
▁산 출
류 에
제 도를
세 요?

▁태어 났
수 입
▁0 9
병 에
~ 20
▁트 랜
▁3 

인지 라
진 한
▁정 면
▁주민 들이
▁원 리
▁조현 아:
▁자 궁
▁s h
▁것 인데
▁어 색
▁조 상
는 지를
성 에서
▁확인 하고
▁크로 스
외 교
▁' 자
▁철 회
▁관리 하는
▁상 륙
▁시 계
▁삼 고
▁죽 이고
▁주 었다.

작 업
▁나라 에
▁떠 났
▁최순 실
.1 5
▁포르투 갈
▁M ar
▁적 에게
▁우 린
시 장을
▁다 가가
▁가족 을
네 ."

▁전 도
게 는
▁서 포
▁ 긁
▁끼 고
▁우리 도
▁상 한
▁성 별
▁명 중
▁부모 님
▁넉 넉
▁가지 로
니 스트
▁쓴 다.
스럽 고
▁싸 울
▁문화 가
▁몸 은
▁차 분
▁대 고
▁재 단
사 들의
▁독 도
▁5 시
▁메 탈
▁다음 의
▁종교 적
저 리
재 산
▁불 쌍
▁메 리
▁아버 지와
▁일 일이
▁나누 는
ic s
▁일환 으로
▁봉 인
▁살 던
혹 한
ab le
▁논란 을
▁이내 에
▁미국 ,
입 니까?
▁때 를
!! !
▁조 영
▁지키 기
▁부 자
▁화 해
▁문 이
▁걸 맞
▁ ᄏᄏᄏᄏ
▁하 시는
지역 에
반 도
▁약 물
▁대통령 에게
▁주 셨
더 슈
▁ 깡
I I
스 킬
고 와
▁어렵 다는
장 비
▁가 맹
▁# 인
▁열 려
▁2 .0
▁있었 습니다.

▁주 석
▁미 치지
▁대신 에
▁노 려
▁일자 리를
▁ 쑥
▁방식 은
▁이동 통신
▁피 부에
▁역할 이
▁상징 하는
되 지만
바 지
▁충 성
▁산 림
▁정 밀
▁사항 을
▁해결 을
▁맞 춘
돈 을
▁피 터
▁스위 스
▁때 와
하 다"며
▁집 합
▁분 당
▁말 인가
▁선 물을
▁추가 된
▁Y TN
▁ as
▁정책 이
▁거 북
▁어우 러
▁방식 의
▁Pr ess
▁키 우는
슨 의
▁그 라
▁모른 다.

움 에
▁민 원
▁고 시
▁병 을
R A
▁수 령
▁내 달
▁배 울
럽 고
보 안
▁넘 나
▁마 신
▁착 한
30 분
▁잘 하는
▁태 극
▁장 비를
▁아르 헨티
▁스파 이
▁참여 를
버 릴
▁사용 된
었 으며
▁전 적으로
▁거기 다
산 시
▁인류 의
느냐 는
▁전 제로
▁세 균
▁부 천
▁형 편
기 게
다 면서
▁환 율
파 와
▁침 공
▁답 을
▁대학 의
▁행동 에
▁Un ivers
▁사 귀
-1 2
▁부분 에서
▁마 다
▁실 린
▁발 레
▁아 내는
▁세계 대전
▁신 사
되었 으나
▁제출 한
▁구 미
▁기 쁘
▁너무 도
매 매
신 에
▁알 코올
▁# 맛
▁되었 다는
▁안 티
▁클 라
적 한
▁' 공
▁확률 로
▁너 의
▁구 출
▁살아 가
▁개인 정보
▁연 기를
직 에
▁발표 된
▁ 엽
▁뚜렷 한
보 장
▁박 태
병 은
▁빛 나는
러 는
▁만나 고
▁검찰 에
▁특징 은
▁참석 해
▁ 쿄
후 가
▁본 회의
▁최 다
포 럼
▁아 줌
키 아
▁지 침
집 니다.
법 (
▁요 인
6 7
▁증가 하고
▁혐 오
▁현실 에
대학 원
▁속 을
▁발 명
기 금
▁이번 엔
▁사랑 에
▁맥 주
▁장 거리
▁어머니 를
건 :
조 약
▁득 점
▁전 염
▁체 제를
▁장 학
▁계 좌
▁탁월 한
▁화 제가
▁일상 생활
▁조금 이라도
▁입 지
▁유 가
▁모델 로
▁ 켈
▁행 사는
▁가격 에
▁결정 할
▁맡 았다.
속 이
▁왔 던
~ 201
▁아쉬 운
자 면
▁맛있 게
▁무릎 을
냐 ?"

문 ,
▁분석 한
▁희 귀
▁끝나 면
라 이트
학 습
소 

▁격 파
▁6 2
줄 이
▁신청 을
▁돌아 오는
퍼 스
" 를
▁캐 스팅
▁달 래
▁IM F
회 복
▁각 자의
▁1 호
▁세계 가
모 리
이 거나
해진 다.

▁2 .5
▁회 장의
▁모스크 바
▁소송 을
▁ 컷
▁망 설
▁떠 나는
▁얼굴 은
과학 기술
검 을
▁유명 하다.
▁프로 토
▁달러 를
▁뚫 고
▁교 수의
▁사이 를
▁5 %
타 입
해 졌다.

▁십 자가
법 원
▁수 색
▁안 전을
▁사업 의
▁기 습
▁페 스티벌
▁7 .
함 의
목 적
▁조 준
영 상
▁3 시
▁200 6
▁준 우
▁2 시간
라 면서
▁6 ,
▁전 무
행 사
▁입 국
▁모른 다는
▁거 리에
▁1 대
▁살 기
▁196 0년
▁절 감
았 는데
▁빼 고
▁소 리로
▁ 렉
생 명
▁한나라 당은
▁기록 하고
▁휘 두
티 어
▁100 여
▁자랑 하는
▁시 정
▁일 원
▁놀 랍
▁물 품
# #
▁해결 하기
▁개혁 을
E M
▁이렇 듯
▁수 급
▁T e
▁범 위를
▁모 조리
▁평가 했다.

▁기 숙
▁차가 운
▁기업 을
▁사고 로
회 

▁아직 은
▁그렇 다.
▁유 머
▁이뤄 질
▁연구 는
▁해 마다
▁물 가
▁받아 서
티 를
▁계 층
마 와
▁은근 히
▁198 2년
▁카 즈
가 구
▁표현 하는
▁타 락
▁피 어
통 제
▁막 내
▁집 필
▁LG 전
▁일 간
▁미 스터
▁호 르몬
▁여 덟
▁의원 들은
▁작업 이
▁공 헌
이 치
▁알 기
조 

▁표현 이
▁박 진
▁집중 적으로
▁거 꾸
▁준 수
▁말 의
▁스 폰
▁합 니다
▁바꾸 어
▁보여 준다.

▁방 북
▁현실 적으로
▁달 리는
▁바 쁜
▁안 을
▁구 역
▁둘러싸 고
▁소 홀
▁면 제
적 일
▁놓 아
디 의
족 이
▁U N
객 이
▁유 우
▁불 렀다.
츠 는
▁위 탁
▁197 0년대
L C
▁조 속
▁소 문
▁앞 선
▁방 을
▁W h
▁안 나
▁탈 당
로 만
▁정 권을
▁24 시간
( O
▁불 량
사 기
▁너 를
▁급 히
교 는
▁지 형
▁나 뭇
▁판매 하는
▁아이디 어를
▁던 전
o x
▁하나 ,
▁이 준
이에 요.

▁영 역을
▁멀 쩡
▁이번 이
oc k
▁소 나무
ub l
▁웃 는
▁Y ou
8 )
▁지나 가는
쪽 에서
▁무 리가
4 1
▁엄 격한
▁단 위로
▁콘텐츠 를
▁공 존
증 에
▁미 네
▁애플 리
▁서 방
▁현 장을
으 시
▁3 가지
현 주:
▁파 생
▁이 들에게
▁P h
▁우려 를
벤 처
율 :
▁일 하고
▁증 정
▁그 보다
▁야 스
▁공격 에
▁친구 들이
노 가
▁ 핏
레 나
▁규모 로
or ea
▁니 콜
▁명 문
▁김 승
▁초 창
▁묶 어
▁때 에도
고 리
▁움직 일
▁겪 은
▁권 장
▁방 금
이 긴
▁정 류
▁규 정에
▁항 복
▁우리 나라는
▁초기 에는
▁추진 할
▁보 시
독 립
▁ 뿔
▁정 권의
▁앉 은
▁사라 지고
▁움직 임이
례 가
5 )
토 )
예 산
▁30 대
▁잡 기
▁글 쓰
it t
▁( 2
▁나오 기
▁쌓 여
▁다 닐
쉽 게
▁점 수
방 위
더라고 요.

▁있었 으며,
량 에
▁웹 툰
네 의
▁벌 이는
▁엉 뚱
▁승 려
▁이거 는
▁거 세
▁타 워
▁분석 을
▁모습 에
▁꾸 며
6 9
▁변 해
▁규 정을
▁바뀌 었다.
▁만 드
▁김 세
▁연구 개발
책 이
▁구 단
▁정 당한
내 려
▁작 고
▁앞 을
▁선거 에
▁진행 될
▁인물 로
그 림
▁보 자.
▁사랑 은
운동 의
▁폭 넓
▁니 가
▁낭 비
▁국민 에게
▁백 화점
▁짙 은
▁구 두
▁제작 된
▁댄 스
▁헌 신
시설 을
▁숫 자
▁광 화
▁김 포
▁한 양
▁두 꺼
▁압 축
▁도 출
▁비정규 직
▁아니 기
oh n
▁간단 하게
▁준비 하고
인데 

▁그 까
▁종 일
as h
생 물
▁명확 히
▁적 립
▁고스 란히
내 에서
) 이라
▁후 의
▁강 화를
▁시험 을
▁P R
▁없어 요.
하 ,
인 지를
D A
▁민주당 이
법 

씨 (
▁고객 을
▁보고 서
▁주 제에
▁말 투
▁198 3년
▁사 각
▁균 형을
▁평 소에
▁지자 체
디 스
▁복 무
밥 을
▁지적 했다.
▁목 욕
... .

▁베를 린
▁뿐 ,
▁사 정이
▁품 목
▁선거 를
지 요.

협의 회
염 을
▁어째 서
는 ,
▁서울 중앙
▁연구 원은
▁버 리
민주 주의
문 

▁생각 하
▁그 제
▁느껴 지는
u al
였 다
▁플 라스
▁사 장이
▁c om
▁게 이트
▁구성 하는
ak e
▁숙 박
▁비 더슈
년 을
▁결과 로
▁하 신
▁설명 하는
하 우스
▁나 루
▁양 식
▁간 절
▁차 려
( V
▁소 셜
▁지 났
▁가 자
▁네 이
래 를
▁잘못 을
▁이해 하기
p p
▁C on
▁확인 한
▁전 격
▁제 의
▁전 수
▁목 포
량 과
~ ~

과 대학
▁그 대
▁바이 러스
사 나
▁일단 은
개 국
▁입 단
예 를
▁수 확
▁가 계
▁각 별
y s
개 념
▁"우 리는
▁것 인데,
▁그래 야
진 (
▁포 위
▁어려 움이
▁본 다.

▁전반 에
일 과
▁인공 지능
▁추 방
▁5 분
▁귀여 운
▁도 박
▁진 학
오 로
▁똑 똑
▁197 9년
▁죽 일
▁' 유
준 표
변 이
터 로
▁비핵 화
▁최소 화
조 원
리 언
.0 3
▁ 펑
▁중 에서는
강 한
▁동 경
▁공 인
▁종 전
▁가져 온
레 의
▁폭 로
▁아내 의
▁믿 지
▁비판 이
▁깊 게
▁많 다는
▁우 월
▁지극 히
▁사용 을
▁현 존
렸 다는
▁실패 한
▁이 만
▁포기 하고
눈 에
크 ,
▁기자 들과
▁인간 과
▁경쟁 이
▁운 명
▁아 세
▁사항 은
▁속 에서도
▁마 비
개 선
졌 지만
십 니까?

▁있을 까?
re e
러 의
보 증
▁안 에는
▁의 무를
▁모두 를
시 에는
▁이 룰
작 으로
▁거 둔
▁스크 린
▁아카 데미
▁스킬 을
▁박 용
.0 5
▁탐 구
▁추 첨
▁심 상
▁약 화
em ent
현 ,
주 차
혈 압
▁떠 날
▁출신 으로
기온 은
▁빈 곤
▁깨끗 한
▁행복 을
▁가족 과
까 봐
▁조 화
거 렸다.
▁실 버
▁신 축
▁본 선
▁특징 이다.
▁추정 되는
▁높 이기
전 도
5 000
▁아 홉
▁미 소
▁막 고
▁쓰러 뜨
er at
처 분
▁조건 으로
▁사 소한
▁피 부를
' 이다.
▁요구 에
이었 습니다.

▁부 르고
▁남 기고
▁입 사
▁답 했다.

▁밑 에서
▁인 텔
▁G r
▁초 에
므로 ,
▁때 보다
▁' 기
▁곳 도
▁" 남
시 장이
우 와
▁불편 한
▁일본 을
▁무사 히
▁집어 넣
프 와
동 (
D I
혔 다.

아 

▁올 렸다.
ex t
▁거 느
▁인 프라
▁빅 토
▁반 려
▁주민 들의
▁군 데
▁파악 하고
▁선 제
료 로
탄 의
유 산
으 셨
▁이 다.

▁이곳 은
▁하 에
▁6 1
자 키
구 니
▁늘어나 고
V P
▁스티 븐
더 군요.
▁버 릴
함 ,
▁200 5
▁견 해를
▁상황 이다.
▁단 어를
▁기자 입니다.

▁) 은
▁점 ,
▁꽃 을
크라 이나
▁물 류
▁직 원이
▁최우 수
▁여기 서는
i ,
▁포 럼
▁가리 키는
▁터 치
▁답변 을
판 에서는
▁바이 올
▁중심 이
▁ 럭
▁경상 남도
▁하나 만
▁발 로
▁운 항
▁장 미
▁비 해서
행 에
▁공 룡
▁근거 가
▁그 레
▁그 토록
▁9 7
▁소 나
자 라는
▁할아버 지
▁" 국민
▁출신 인
▁인사 청문
im e
▁여기 까지
▁추진 하는
▁울 트라
▁파 이어
▁올라 온
메 이크
▁다 리가
▁요청 을
별 로는
▁침 투
▁맞 을
티 드
청 년
▁3 인
▁만 주
▁기술 은
적 ᆞ
▁연 락을
니 ?
가 인
들 처럼
▁빌 딩
▁가 문의
▁행 사가
▁th at
역 과
산업 의
팀 을
▁만들어 야
자 리를
▁처 치
▁늘어 날
▁현실 의
▁말 하며
▁대학 에
▁고민 을
▁감사 합니다.

▁요 한
▁순간 ,
▁카 라
▁이전 에는
▁성 숙
▁달리 ,
▁성 명
▁근본 적으로
▁스카 이
▁박 원
▁" 유
▁여 부에
▁씨 앗
▁전망 했다.

▁유 성
▁2 개의
면 적
▁김 은
줄 을
안 타
▁낭 만
돌 아
족 을
ᄒ 

였 으며,
▁그 후
보 도
( ?
수 요
▁대학 원
▁서울 에
( 고
i er
▁출시 된
▁활동 하고
폰 을
금 )
▁했 으며,
▁선보 인
▁기간 을
▁고 기를
▁번 이나
거든 .
▁분 배
▁싶 었다.
▁마을 의
▁살아 야
동 기
▁거 라
▁군 은
▁수행 하는
▁저 술
▁ 님
▁달 에
4 3
완 :
▁말씀 이
▁실 력이
▁개 선을
ol l
▁강 수
▁주 무
결 에
▁거 라는
▁손 수
▁L e
든 ,
▁히 데
▁배 상
▁됐 다
▁T r
▁실험 을
부 지
▁ 램
프 ,
린 다
▁9 8
▁가 중
▁즐 겁게
▁갖 지
▁대다 수
▁스트레 스를
▁않 지만,
▁0 x
메 달
시 대에
자 료를
▁의 문을
오 와
병 으로
▁모 터
▁0 5
▁태어 났다.
선 물
▁198 1년
▁인터뷰 를
▁여 성을
들 .
▁협 의를
▁딱 딱
▁애 를
시 에서
▁ 짱
▁지상 파
▁경제 를
▁실 수를
▁195 0년
리 도
▁호 칭
투 스
▁내 구
▁바 둑
▁이 혜
▁작성 한
▁대 가로
▁사용 하기
▁확인 해
몬 드
▁흘러 나
▁부 재
▁주 위를
▁압도 적인
▁프로 필
▁외 의
▁병 이
▁기업 에
▁손 바닥
▁자 사
▁검 을
당 으로
▁세 무
▁자체 에
▁시설 을
▁올랐 다.

계 ,
▁위 를
▁잠 이
▁" 박
▁평 안
▁있 다면,
▁오 라
카 르
▁거꾸 로
▁방 으로
▁욕 을
▁하 천
▁병 력을
▁정 식으로
▁한숨 을
▁전망 이다.
▁문 승
an c
▁일본 어
▁상 정
▁연 루
▁돈 은
목 )
▁여 권
십 니까?
운 용
인지 ,
▁생겼 다.
▁노트 북
▁우 회
▁에 이스
▁남편 은
▁국가 에
▁유 교
사 장
( ,
▁시 키는
구 치
거 렸다.

센터 에서
▁마 루
▁재 해
보 이
일 즈
▁눈앞 에
종 :
우 면
▁최소 한의
▁" 신
▁일찍 이
▁이 대로
▁쏘 아
▁판 정
▁어렵 지
▁잊 어버
▁17 0
▁일어 났다.
▁행 사에
▁당 국은
내 야
상 담
▁남 성이
▁ 톡
▁비 웃
애 를
▁이유 도
▁올라 가는
▁형태 가
▁자세 로
테 르
G B
▁마찬가지 다.
▁팔레 스타
▁월 급
백 이
일 까?
▁여기 에는
▁국 세
포 먼
▁벌어 지는
▁1 분
▁인 지도
▁이후 로는
야 .

▁언론 의
▁병 역
▁잃어버 린
혀 서
▁선진 국
크 와
▁단 정
▁해 준
▁신 생
▁ 닛
▁시 공
▁쪽 에서
▁강 철
▁중국 ,
▁닮 은
롭 지
▁랜 덤
▁운영 을
▁로 그
▁등장 .
▁무 방
▁8 강
위원회 에
▁되었 던
순 위
▁사 천
▁열 대
▁드 림
▁두 어
▁죽 이는
▁설명 이다.

▁입 각
▁임 원
▁상태 다.

▁주장 한
▁요구 하고
축 구
▁중 지
피 가
▁방침 을
여 ,
▁황 교
적 이라고
▁서 기
▁지 워
▁오 렌
간 담
▁드 문
들에게 도
▁쓸 데
) 이다.

값 이
) 에는
▁놓 인
▁ 냈다.
▁입 수
▁어마 어
놓 을
▁대 사를
▁재 빨리
▁그런데 도
내 며
▁반 가
▁원 본
▁어 이
▁# c
▁돌 격
▁아티 스트
▁연결 되어
조 각
릅 니다.
▁입 찰
▁두 께
▁경 력

▁침 몰
신 ,
▁손 해를
커 녕
드립 니다.
발 로
▁국 도
▁단백 질
▁어 

▁강조 한
▁ __
▁뿌 려
▁FI FA
▁그것 에
▁가면 라이더
▁비 단
▁국 산
닷 컴
9 

▁하 려는
▁화 합
▁ 첼
▁심각 하게
▁모르 지만
- S
▁부 엌
m e
▁단 점
▁전 동
네 는
▁증 상
▁형성 된
av e
l es
▁며 느
▁온 천
▁부 인이
▁정 립
▁여 는
▁9 6
▁ 뉘
▁비행 기
▁어 드
손 으로
▁눈 은
▁정 글
▁여 유가
스 틱
▁천 황
▁주장 에
군 

▁표 출
▁전망 이
▁수 단으로
▁것 과는
▁서 초
▁성공 적인
▁레이 더
▁높 이고
▁행 위는
량 으로
▁휩 싸
▁저 택
번 이
▁플 레
E A
▁인정 하지
▁목 이
▁악 의
▁무 더
▁파 이터
▁외 계
▁필요 하다
▁세 르
▁여성 들이
▁모양 으로
순 :
▁마 츠
▁소설 을
주 식
a 

▁않 다
▁때문 입니다.

~ 30
▁ 쫌
▁오 케
▁되 지만
먹 은
~ 9
▁연결 하는
녀 가
▁정 유
된 다"고
▁주 파
▁안전 하게
▁하늘 이
▁원 형
▁그 늘
축 제
포 의
▁ 빔
▁디자 인을
하 

▁등 판
▁후 임
▁해 금
▁사 과를
메 가
오 면
▁성 분
▁서 정
▁높아 지고
▁상 급
했 으면
▁신 제품
▁테 니까
▁일제 히
▁ 믹
▁디 스크
▁현 직
▁당 하고
하자 .

▁취 한
명 에게
▁비난 을
▁플레이 어가
프 라이
▁맞추 어
▁집 은
▁안 정을
▁많 기
태 :
ri d
▁하 향
▁자 외
저 런
ic t
▁인 원
▁F A
▁동 계
야 가
▁사무 실
T O
▁' 전
약 이
▁손 쉽게
▁리 스트
▁가리 킨
▁공격 하는
( 10
▁이 르면
▁교 정
▁운 반
▁목표 는
▁과정 은
기술 을
▁조 카
▁원 전
으로 서는
▁걷 는
▁강력 히
것 으로
지 ."

에 르
▁민주당 의
▁리 처
▁고 지
불 이
▁흰 색
▁제 도가
▁마 른
즈 와
▁이 도
▁공 적
▁흔 한
▁귀 가
값 을
▁메 카
▁적 정
▁하 려
▁성능 이
렸 다고
. n
▁애 초
▁당 원
▁사랑 과
ᄏᄏ 

▁주인공 은
안 으로
▁비 리
▁과 잉
▁개인 적
▁붙 인
▁없어 .
▁오 류
▁용 기를
▁슬 픈
▁해 줄
▁거 다.
▁교육 과
▁' 인
▁판결 을
▁바라보 며
찬 을
p x
▁토 론을
I G
아 도
▁심리 적
왕 을
주 )
▁해 요.
▁온 통
▁전체 에
듯이 ,
▁낮 추
▁제 8
▁김무 성
▁이번 에도
▁돼 서
▁40 %
▁촉 촉
▁처벌 을
▁성 질
▁M A
▁동안 에
▁맞 물
▁돼 야
열 에
▁8 4
▁변화 는
▁활용 하는
▁D NA
▁자 민
▁아니라 면
작 전
▁내 부에
어 요?
▁ 튜
▁ km
▁습 관
▁있다 

▁것이 나
▁우 크라이나
▁산 맥
▁200 2
▁너 도
위 키
▁아이 스
▁넘 쳐
▁전국 에
▁날카 로운
▁만나 서
▁직 전에
▁사 거리
▁높 일
▁기 호
▁인 내
▁것 의
▁박 탈
방 식
▁데 이트
▁바 에
▁M an
중 에서
▁흡 연
▁주의 해야
5 천
왕 (
비 디오
▁줄 이
▁일 주
▁설명 하고
▁그때 는
청 구
시키 고,
▁역 사는
▁A d
▁받는 다.

▁이 창
▁병 력
▁터 널
▁한 인
▁분석 이
▁선호 하는
▁197 3년
의 료
▁초 상
olog y
였 는데,
사 실
▁수 평
▁군 주
▁관계 자
▁대 여
▁가득 한
▁숨 겨진
▁친구 를
슨 이
나 요?

▁데이비 드
베 리
▁원자 력
▁정도 였다.
▁꽃 이
▁사용 한다.

새 가
스타그램 

▁박 경
▁7 ,
▁ ᄋ
▁캠페 인
▁기 구
하 에서
다" 라며
▁S C
▁벽 을
▁청 취
▁삶 과
▁금강 산
▁이 진
▁ le
증 으로
하 진
▁수 만
▁망 가
▁ 탔
▁저 서
▁그러나 ,
▁나 무를
▁중 구
▁ 꿇
▁되었 으며,
▁위 생
▁열 릴
▁본인 도
▁보 육
▁ 一
▁수 험
▁차례 로
냐 ,
▁몸 으로
▁전 국의
▁7 9
타 와
▁날 아가
▁대비 해
▁고객 에게
s on
커 가
▁N C
▁새 해
▁쿠 데
▁나 치
▁특 집
느냐 고
종 (
ur n
라 에
▁요 인이
▁하이 브리
양 은
네 스
됐 고
▁박 살
▁입 니다.
▁길 고
▁운 명을
화 해
▁주 름
내 어
▁줄 이는
신 고
▁바다 를
▁추정 된다.
▁유치 원
라 미
▁세 웠
담 이
il d
맛 이
국 (
▁적절 히
▁부 의
▁심 심
즈 ,
▁안 습
▁2 대
▁이 별
▁인 디
▁싶 다고
는가 .
▁강조 하고
▁휴 식
l and
▁시 켰
▁마을 을
자 라고
▁모양 을
수 원
당 해
삼 성
은행 은
▁예정 된
▁제 9
▁보호 를
등 에
▁홍 준표
▁사 단
▁같 다는
▁과 시
▁참여 해
체육 관광
이었 는데,
▁쪽 은
4 :
▁법무 부
▁극장 판
ik e
▁물러 나
▁그렇 습니다.

▁일 기
티 가
▁거 고
▁정 하는
t e
민 을
▁내용 과
▁퍼 포먼
▁고 사
연 하게
▁드 레
▁자이 언
했 었다.
▁n ame
묵 :
v e
▁달 걀
▁버 섯
▁규 명
보 스
▁사용 되고
▁열린 다.

▁성 형
▁개 량
▁성 명을
▁그리고 는
통 에
▁발 자
▁행 위가
레이 터
균 :
메 리
▁매 운
▁쓰 게
습니 다

▁보면 은
거 리고
더 라면
▁발 탁
▁여러 모로
▁전라 남도
▁m e
▁것인가 ?
as e
▁재 보
▁드라이 브
종 일
▁과학 적
▁정치 적인
▁마 그
번 의
▁표현 한
▁개 개
▁S e
▁먹 어야
▁M e
▁정 권이
▁부 속
▁초 콜릿
하였 다고
▁왕 상한
▁준비 해
▁작품 에
향 이
노 는
▁남 자를
와 이
▁프로그램 이
▁명 절
▁정치 가
M S
▁요 코
▁알 겠
▁놈 이
▁이 화
▁가 다
▁불확 실
▁외 출
▁말씀 하신
▁예술 의
U S
회 로
▁진지 하게
데 다
키 

m l
▁스 태
됐 다
조 한
하기 만
▁마련 한
▁해 변
▁산 을
▁치 매
▁해 를
▁총 리의
▁비교 하면
i ew
플 러스
▁이 례
권 도
▁설립 된
▁도시 를
▁있는데 

▁동북 아
▁발 병
▁선 두
▁옮 긴
프 랑
▁살 았
▁인물 

클 리
▁개 신
거 는
▁선수 들이
▁인 구는
▁박물 관
▁자신 에
▁풍 요
▁이하 정:
▁차 고
▁입 구
층 은
오 면서
▁위해 선
▁밝혀 진
▁기 절
▁" 새
어 지
위원 장이
▁벨 기에
▁너무나 도
▁좋아 서
▁복 제
▁불 참
▁격 투
▁날 을
석 으로
▁사람 이다.
▁일 체
▁들어 선
▁" 마
질 랜드
▁증 대
아 들
▁메 이크
됐 고,
▁일어나 지
▁기대 할
느 니
▁D .
ri st
▁늘어나 는
널 드
▁처 한
▁판타 지
▁히 틀
▁Univers ity
▁정책 의
▁일 과
신 경
시킨 다.

▁2 부
용 ,
▁영화 

▁쪽 을
▁C N
▁카운 터
▁수 업을
▁다 투
▁신 하
▁유 세
▁병 원에서
▁방 한
▁모으 고
▁새누리 당은
ov e
▁민 감한
▁제목 의
▁호 수
▁모두 에게
▁임진 왜
▁수 동
▁ 푼
▁대 인
▁전 두
▁행 성
▁엘리 베이터
▁문승 진:
▁주변 을
▁가로 막
} 

사항 을
▁어 르
진 보
▁ 떴
라 !
▁엔 터테인
▁등장 한다.

▁만들어 낸
▁박 미
▁여 긴
▁돌 고
▁건 물이
▁독립 운동
트 랙
M C
커 스
▁만큼 ,
명 도
▁항 해
▁게임 에
▁사이 에는
▁소설 의
▁진행 된다.

국 적
▁하늘 의
▁의견 도
▁갈 색
▁페 미니
▁상 주
크 

▁조선 일보
▁가 리지
▁보 아야
▁3 분의
▁공개 한
▁5 대
▁살 게
▁느끼 지
▁못 하도록
an k
▁방 문을
▁나 갔다.
▁역사 와
틀 랜드
▁가끔 씩
벌 을
세 요

6 :
▁프 랜
.0 2
▁오프 라인
▁명 에
▁본 다면
▁0 8
▁로 맨
▁4 천
만 으로는
▁캐릭터 의
▁사 면
진 

▁이 론을
▁크 지
노 우
▁순간 에
▁독자 적인
▁예 선
형 과
▁때 만
▁현 상은
보 수
증 의
▁짐 을
세 기의
▁문화 예술
▁크 다.

▁좋 다
▁있겠 지만
▁시 급
▁마을 에
▁청 춘
바 의
▁멈 춰
▁인 문
▁첨 가
▁조 화를
▁변 환
▁수 감
▁주 전
▁엇 갈
버 드
▁클 릭
▁위 주의
령 에
▁관 습
▁얼 어
금 리
▁명확 한
해 왔다.
▁지원 할
▁지원 이
▁ 中
▁준비 하는
▁C V
▁짧 게
지 라도
▁일 컫
▁A S
r it
▁실 로
o ol
▁생산 하는
가 치
▁취 할
▁처음 엔
en c
화 되는
▁게임 은
▁처 리를
▁상관 없
▁듯 하다.

▁검토 하고
블 로
▁인터넷 을
▁전쟁 에
▁ 왈
▁현 대의
▁이 완
▁행동 은
사 관
페 이스
레 옹
▁기운 이
re at
▁구 하기
▁코스 닥
버 스터
▁섞 어
oun t
▁함 정
▁번째 는
▁ ..
▁나서 서
시 장은
▁하 귀
▁이 사회
/ 32
는 지도
▁인 접
▁일본 ,
▁감 탄
▁프로 모
▁부드 럽게
▁강력 하게
▁들어 ,
▁거짓 말을
▁발견 할
ail y
▁한국 당
초 가
▁쥐 고
▁백 두
▁가운 데,
▁상호 작용
▁획 기
야 는
▁이 룩
▁활발 한
▁걸 리
▁엄마 의
박물 관
▁아 

▁경제 학
▁중 산
▁혼 인
까 ,
▁지켜 야
▁쓰 인
있 을
▁반 갑
▁( 일)
▁보 고,
▁주목 할
" 이라는
션 이
▁제 10
반 응
▁시 킨
▁역사 에
▁체 감
▁주 제를
▁대 행
▁오 피스
▁못 지않
피 는
▁( 3)
▁국회 가
▁검찰 의
기관 이
▁때 면
▁바란 다"고
▁남 성의
▁설명 이
▁않았 습니다.
▁브 레
▁지 시를
.0 7
▁18 4
공 은
▁아닌 ,
▁왕 자
▁" 알
▁왕 국
▁이 방
적 이라는
▁산업 의
코 스
▁비 준
▁측 에
▁지 구의
▁항공 기
▁하 도
▁학생 들을
▁열 었다.
▁판매 를
했 어요.
▁시 그
▁의원 도
▁ 뽀
하자 마자
▁리 뷰
▁대한 항공
안 ,
▁정 찰
▁넘 기
▁받았 던
소 (
▁장원 준:
▁사회 복지
▁김 규
▁밀 접한
▁왕상한 :
▁귀 환
▁신 율:
▁공산 주의
▁일각 에서는
▁퍼 센트
▁엘리 트
▁원 장
요 금
▁돌 진
▁ 듭
▁맡 게
▁" 중
▁사 토
7 )
▁것 들은
am p
▁계 정
▁돌 연
▁북 서
센터 를
▁부 풀
▁달 이
▁만들 었
바 퀴
십시오 .

▁4 강
▁4 시
▁예상 되는
언 론
비 스
▁싶 다면
▁돌아 올
측 에
▁세계 로
▁차 에
▁사 모
▁민 속
▁20 만
▁묻 고
급 으로
▁7 00
▁석 방
- 8
▁연 동
란 :
▁차량 이
▁없었 고,
▁경찰 의
▁언 어를
▁조 율
▁난 다.
▁C .
▁메 타
▁원 이
특 히
▁지지 율
B A
▁( 토)
▁민 영
▁BM W
▁백 인
▁증 폭
▁끔찍 한
▁양 육
▁오 기
▁수 반
▁매출 이
▁원 주민
' 이라
사 단
▁두 뇌
▁3 위
▁많 습니다.
▁밤 을
▁일본 과
여 명의
▁명 은
▁선 조
▁정도 다.
서비 스를
▁대상 은
▁조 연
▁E d
로 마
▁장 병
▁중요 하게
▁회사 에서
▁출 동
공 무원
시 청
▁ᄒᄒ 

▁종 결
▁강 렬한
▁우 아
" 의
▁비더슈 탄
유 는
▁남 기
▁7 8
▁보이 지만
츠 가
▁맡 겨
▁여 인
▁대 면
▁나 노
당 (
▁반 환
회 사의
▁치 아
▁아빠 가
움 은
▁이런 저런
▁시작 되는
▁정 체를
▁탐 험
▁민주 통합
▁아이 러
▁돌아 보
▁수 분
▁수 필
이 어서
▁의사 소통
학 원
▁일 들이
7 6
▁위안 부
▁없 으므로
▁국제 사회
▁은 폐
극 장
▁교과 서
공 개
▁주장 한다.
▁시 기가
▁없 이는
원 칙
▁0 2
▁자신 감을
▁의 식이
▁미국 으로
▁다 듬
인데 요.
▁개성 공단
▁통 산
라고 도
▁모 금
▁전 력을
하 마
▁전 ,
▁모 의
▁국무 총리
▁함께 하는
▁3 개의
▁평 상
▁뚜 껑
▁벗 어난
▁카 나
▁리 스크
벌 이
▁파이 널
▁약 탈
▁이하 원:
▁체 계를
▁그 분
림 은
▁무언 가
퍼 센트
▁안 개
▁황 제의
▁판 정을
▁눈 동
▁이성 배:
▁지 킬
재 ,
▁서비 스가
▁휩 쓸
▁질 투
▁딜 러
▁총선 에서
▁시민 들이
▁없었 고
▁후보 자는
▁( 월)
▁남 동
▁하나 이다.
오 늘
▁좋 다는
▁화 산
▁유용 한
▁유 망
▁투 어
▁원 망
▁않 습니다.

.1 8
( 9
▁21 세기
▁치명 적인
비 서
처 는
▁' 정
황 을
▁2 기
▁만만 치
▁일어나 고
▁병 원을
품 으로
▁개 체
하자 고
▁쌍 용
▁이천 십
집 행
▁투 자가
▁내 며
히 게
▁샌 드
▁나 중에는
▁피 난
▁묻 자
비 트
▁중 견
▁안 경
들 끼리
▁현실 적인
▁이 안
염 이
▁안 양
▁7 4
▁지지 하는
▁플라스 틱
길 로
▁이곳 을
▁생긴 다.
반 에
받 게
l l
▁둘러 보
▁성 의
▁분명 하게
▁시 점에
▁무 기로
▁검 정
▁불 공
▁평 택
▁동안 의
▁절 실
▁입 체
▁주한 미
▁갇 혀
▁이 즈
▁같 지
차 ,
만원 으로
▁국제 적
심 리
▁데 도
▁보고 서를
▁시리즈 

▁감 자
▁참가 한
▁비 전
▁이 분
▁깔 려
움 의
▁침 대
▁측면 이
손 을
▁특 혜
▁곳곳 에서
▁떨어 지고
▁200 4
그 리고
▁이르 렀
시 지
▁아 들의
▁원 주
▁선정 된
▁없었 을
▁몰 두
▁신선 한
▁일으 킬
▁오늘날 의
▁위치 하고
오 ,
▁방법 에
대 회를
▁모델 이
▁표 를
▁그 도
- C
▁8 9
▁주인공 의
▁바른 미래
뉴 얼
효 과를
▁낳 은
▁조심 스럽게
▁결정 에
▁장관 의
▁꼬 집
하 다

▁건강 에
난 다.
▁사 운드
▁1 세
▁공화 당
회 관
▁군 수
ad e
▁이 글
▁구 워
▁청와 대가
철 이
▁규모 를
▁긍정 적으로
▁효율 적으로
린 다는
▁질 의
▁따라 서는
▁그리스 도의
▁명백 한
▁사 정을
▁196 0년대
▁사 제
a u
▁죽 지
▁중요 하다.

▁빈 번
도 까지
▁선택 하는
커 를
집 니다.

▁여론 이
어 주
▁등 산
▁괜찮 아
▁새정치 연합
▁한국 에서는
▁8 6
▁역 동
▁시작 하여
▁( 화)
노 총
▁다시 금
▁ 풋
▁포 스터
신 도
▁생활 에
적 에
▁이어 지
그 로
자 들에
-1 5
대 구
▁있고 

▁통일 부
야 !
▁요 리를
▁200 0년대
▁초등 학생
일 드
▁유 방
▁세계 적
▁마법 사
체 계를
▁" 누
▁반응 은
▁시원 한
▁저 절로
▁거주 하는
▁가 문
퍼 센
▁얘 기는
▁( 수)
▁조 롱
▁갔 다가
잔 을
▁바로 잡
▁공 사를
들 까지
▁한 방
▁장 의
▁개 교
▁프로젝 트를
▁후보 와
리 코
▁친 한
▁달라 진
렸 고,
▁않 겠다는
▁보고 를
▁편 곡
이 용
▁갔 을
▁한 복
▁근거 를
▁"이 제
군 다나
▁엔 지
힌 다.

▁세월 이
▁그러 는
▁신 을
▁없었 기
말 에
▁싶 다
▁사건 과
▁처 방
▁고 고
▁분 은
▁환 승
▁의 거
▁휘 말
단 체의
▁화장 실
▁기 용
▁원 유
a i
르 면서
▁( 목)
▁날 은
▁외 곽
▁통 증이
▁섞 여
▁모 호
▁특징 

▁당 할
▁후보 에
▁ 빡
▁앞장 서
▁보 복
미사 일
▁생각 합니다.

▁교 역
비 도
▁추 종
g ,
▁공화 국
▁확인 하는
계 (
▁ 샷
▁힘들 게
곳 에
▁" 조
테 이션
▁주 부
사업 에
▁서 사
이었 지만,
▁호 랑
▁감 성
자 들도
▁자 진
▁책 상
▁보 러
▁불 만이
오 던
▁우 스
▁"이 런
▁원 로
▁팬 들이
c c
▁나가 서
▁유 한
▁우 상
(1 8
십 니다.
▁누 나
▁가 요
ow n
▁위해 ,
( 제
겠 고
▁왕 은
근 로
▁3 ~4
▁작품 으로
▁형 이
▁1 등
▁유 령
▁이 보다
책 으로
▁보 이기
정 부가
▁기 각
있 다
▁시 드
되어 서
▁거야 ."

▁시절 부터
▁이 산
▁농 구
▁피 부가
▁보도 에
구 멍
됐 으며
▁관 리가
닉 스
욱 :
▁루 트
단 위
▁ 金
대 교
▁근 원
▁마이 너
명 하게
▁다루 고
c k
▁국 한
▁아내 를
▁야 채
하겠 습니다.

온 이
▁모습 도
▁지난 주
하기 에는
▁암 호
▁ ^^
▁세 웠다.
▁공식 적인
▁의미 한다.

억원 에
▁네 오
▁나폴 레옹
▁아르 바
▁소 음
▁반 격
▁호 위
▁재 임
▁배 터리
▁다르 지
▁파악 할
▁같 지만
▁주 입
▁회 상
▁삼성전 자는
▁해 고
▁별 도
▁알려 주
▁명 성을
▁말씀 하셨
▁사 촌
▁한 의
▁만들 었다.

▁음 .

▁친구 들과
8년 에
▁모양 이다.
분 ,
▁나 뉜
▁도 주
치 아
▁( 이
▁파 키스탄
▁전국 적으로
▁다름 없
형 

▁고 장
▁남 지
▁뉴 질랜드
y n
▁담 보
▁다 이어트
▁노 선을
▁할 수
▁서울 대학교
▁통 하는
가 들이
로 봇
▁ 줘야
플 라
▁비 율은
▁마 법을
이었 다
▁질 서
▁ 났다.
국 회
사 전
▁관람 객
종 ,
▁전 까지는
▁상세 

쓰 는
표 준
저 가
▁영 등
광 고
▁협 동
련 을
▁원 숭
▁최근 의
▁기온 은
▁대학 을
▁도 약
▁결정 이
테 러
▁타이 거
▁강화 하는
▁경 계를
▁매 력을
봐 도
▁과거 를
▁흥 미를
봉 을
소 시
▁제기 되고
▁이 쪽은
귀 를
6년 에
r on
s )
▁탐 색
▁하귀 성:
▁예 민
▁환경 이
▁극단 적인
▁W orld
문 서
▁ 툭
▁지 내는
▁등 재
▁연 쇄
▁디 즈
▁손 꼽
▁뜻 은
▁그림 자
▁일시 적으로
▁다 중
▁새 삼
,000 원
효 율
▁A M
▁해 .
▁떼 어
러 리
R I
▁ 前
▁나오 는데
▁법 조
업 의
사 :
로 미터
▁사 자
▁체 중
▁신 세계
비 

▁시작 하였다.
▁기록 하며
▁주 위에
▁머 무
▁스 캔
▁폭 격
▁않았 다
게 요.
챌 린
▁죽 기
터 미널
▁지 사는
▁책 ,
기 반
▁감 축
▁클라우 드
론 ,
▁체 류
▁논의 할
▁조사 에
▁구성 원
겠다 며
▁받았 다고
▁양 을
▁준우 승
▁벗어나 지
▁김 유
▁곤 충
운 전
▁뜯 어
▁분노 를
교 사
체 제를
▁시 기는
▁든 다.
▁내 걸
ran s
▁무 대를
▁: ::
▁치 솟
▁금 요일
받 았다.

at t
날 이
▁경 기에
▁코 코
▁미 용
▁장 남
▁유 난
▁밖 에도
▁매 치
▁A C
▁모 방
처 가
▁197 5년
▁모 토
▁헨 리
바 르
블 릿
▁김 창
▁운동 이
▁기다 리
▁개념 은
▁직원 들이
▁ 띤
교 류
나라 에
▁전 과
▁성 직
▁회 고
▁전 임
▁M .
▁ 뺨
▁카드 가
세 요."

▁# p
▁틀 을
번 ,
졌 습니다.
▁8 7
였 으며
▁벌 여
▁대 두
▁케이 스
6 .
통 화
▁있으 면서
▁증거 가
▁불필 요한
▁대 사가
옥 :
▁유 감
가 면서
▁성공 할
▁편 에
▁필 립
▁이리 저리
▁입 에서
▁이루어 지고
▁' 모
▁더 빙
▁취 하고
길 래
함 

▁국가 에서
▁적 고
▁8 .
▁자료 에
▁한번 도
아 주
유 지
▁맞춤 형
▁식 탁
▁타 이어
▁추가 바람
▁국 가는
결 이
ut ion
▁SU V
▁진행 한
▁나쁘 지
면 과
▁군 사를
보 조
콘 텐츠
▁그래 ,
▁뇌 물
▁비 스
▁영혼 을
곡 이
쪽 .

▁에 릭
▁활동 하는
▁재 차
▁위원 장의
▁대표 적으로
▁저 주
▁엘리 자
날 을
▁0 7
▁저 널
▁조금 도
o o
▁매 월
▁저희 는
▁불 린다.
▁했 다"고
▁불안 한
일 기
스트 는
▁총 독
▁불 쾌
▁생각해 보
▁도 끼
▁난이 도가
▁구 슬
▁15 년
오 게
= =
D S
m 의
▁위협 을
▁삼 촌
▁요구 한
계 약을
ic ation
▁17 9
목 에
▁1일 부터
차 와
문화 의
i el
▁L A
▁16 강
▁그만 두
▁내 렸다.

▁보 상을
▁참고 .

렉 션
▁고 유의
▁부 부가
▁이 케
관계 의
디 자인
만큼 이나
▁마 냥
▁학생 들에게
▁좀 처럼
▁7 3
▁수 월
▁하 겠다는
▁있 기는
▁재미 를
천 을
▁197 2년
복 합
▁속 에는
▁특징 이
▁불과 한
능 력이
수 리
▁정리 해
▁회 색
▁아 인
▁시민 들의
전 선
되었 기
▁한 중
▁정보 는
▁특징 이다.

▁납 품
▁장 소를
▁위 임
▁할지 라도
▁현 안
하는 게
▁북한 과
▁알려 지지
▁조직 이
억 원이
▁시민 단체
9 00
4년 에
대 기
▁오 키
▁L ED
% 는
제 

진 으로
▁" 난
▁사 다
▁삼국 지
▁조 립
▁말이 야.
링 이
yst em
f orm
▁성 적이
▁면 담
▁한번 에
무 장
마 일
비 행
▁자신 만의
하였 습니다.
________ ________
▁잦 은
▁줄 이고
명 )
백 화점
실 록
▁아시 안
▁프레 임
▁편안 한
▁어둠 의
▁8 년
▁동 지
펀 드
▁비 춰
▁교통 사고
▁하 라
▁( 금)
▁발생 한다.
▁봉 쇄
▁시작 되었다.
대 원
플 루
이 기에
▁과거 에는
▁나가 야
▁야 당의
▁예정 인
▁정 반
▁200 1
▁우 주의
방 어
▁김 남
▁ he
가 (
▁쏟아 져
가능 한
▁차지 했다.
▁효율 적인
▁한가 운데
▁베 풀
집 단
▁하 기로
▁Al l
베 이스
▁연구 소
▁죽음 에
▁박 스
▁크 기의
▁건 드
▁7 1
▁모델 은
▁조 치가
▁연 수
▁200 3
타 이어
▁것 

▁대 회에서
▁해 임
▁경 기는
▁에 르
▁찬 양
▁공 허
▁열 정
창 조
▁바 울
▁다운 로드
▁더 군다나
폭 력
▁8 2
▁한 성
▁위 헌
▁생각 으로
▁줄 곧
▁타 인의
▁증 상을
▁비더슈탄 트:
▁2 루
▁국가 와
▁ 덥
▁다큐 멘
▁핑 크
▁작업 에
디 를
▁훔 쳐
▁서 면
▁다음 ,
세 요?
순 이
▁수행 할
죠 ."

▁마 리오
새 를
▁나타나 지
▁준비 한
▁내 기
▁배우 고
리 히
▁제품 에
노 스
▁블 러
준 의
▁계 란
용 은
▁채 취
▁영 어로
▁청 약
▁이 윽
악 을
▁우 편
형 (
▁물 은
▁위 와
▁발표 를
▁사 십
▁인 정한
▁앞 뒤
▁싸 운
I M
▁용 도로
▁고 혈압
▁행 태
▁쉽 고
소 서
▁김 주
저 우
민 국
본 다.

▁ 쿼
▁부분 도
▁알아 차
▁측 에서
그 레
▁정 진
▁복 음
▁출연 한
토 와
- 20
됐 을
협 상
▁내 뱉
▁익숙 한
▁신 약
위 험
▁암 시
▁던 진
7년 에
르 를
이지 .
▁발 걸
▁# inst
▁지 름
▁W ar
▁" 문
▁문화 체육관광
is e
▁처리 할
▁손 실을
▁잠 정
브 로
▁법 안을
▁대부분 을
▁사회 는
됐 지만
해 하는
▁문학 의
▁외 로
▁휴대 전화
▁ 땡
▁길 러
▁최병 묵:
▁압 수수
▁올해 의
때 로
자 금을
▁주민 들은
▁소개 했다.

▁공 이
▁회담 을
▁포 스코
▁불구 하고,
▁음 식이
▁스 탯
졌 기
▁내 포
el f
오 르는
협 약
▁경 과
▁기술 과
▁남편 을
▁출 토
게 .
표 는
▁당 이
하라 .

증 과
▁가져 야
▁사 상을
▁총 기
▁아이 에게
빛 을
보 ,
▁되어 있
당 

▁ 립
화 폐
▁육 아
▁남 양
▁후 유
▁연 인
▁가 급
▁L CD
▁해 피
베 리아
▁정도 면
▁불가능 하다.
천 (
워 하는
제 약
▁출마 를
락 의
▁치 우
p s
▁ ᅲᅲ
▁표 본
▁먹 어도
▁목 회
▁전달 하는
▁패러 다
▁방법 이다.
▁"아 ,
희 ,
▁비 참
미 네
▁배 송
직 이
하였 으나,
▁마 도
▁싸 워
석 에서
▁전 하는
입 을
▁시간 도
▁디 아
▁자연 스러운
▁방송 에서
비 한
▁이상 하게
▁권 총
▁나오 게
4 00
▁든 든
전 용
▁수상 한
학 (
▁유 족
▁남아 있는
▁프로그램 의
▁표현 할
▁모두 들
▁ 킨
티 스
▁확 고
▁대 수
정보 를
▁환 자는
▁파일 럿
셔 도
▁양승 은:
짐 을
▁평 일
▁혼란 을
▁아이 스크
까 진
▁건강 보험
▁피 하기
▁동성 애
기간 이
▁하 겠습니다.
▁설 정이
) 한
▁바 꿨
▁ 쳤
디 에
▁적용 되는
▁선거 구
▁D VD
▁경 성
▁고 분
▁그 리는
▁얻 었다.
▁공 수
째 로
O W
▁Y ork
▁박 철
▁계획 은
▁컨설 팅
▁"아 니
▁명 명
▁ 낱
▁ 랑
▁비 만
▁메 디
▁아 쿠
▁아가 씨
▁자 위
▁( 1
위원회 에서
츠 키
베 스
▁영 주
령 으로
▁것이 니
▁떠오 르는
나 지
▁평 가는
▁지 녔
은행 의
들이 나
모 습
▁김동 길:
▁끊 어
▁내 재
▁O ST
▁오 이
▁살아 있는
▁나 나
▁공 정한
▁보 강
▁자 격이
▁1 %
▁변화 의
▁헤 아
▁나가 고
▁넣 을
▁미 처
▁필 사
▁통 행
▁진출 을
▁움직 이지
▁저 소득
▁귀 에
▁올라 갈
▁재능 을
라 비아
비 서관
▁웃 고
해 요
선 택
▁가 담
▁실 효
▁망 명
▁기 기
▁죽 게
▁방법 도
▁제기 한
▁나 눔
▁도 의
천 이
▁단 점이
▁복 사
▁토 요
▁손해 배
( 8
▁A K
▁멜 로
▁이 따
▁보여주 었다.
▁모 욕
▁허 무
님 

정 하게
금 과
▁ 짠
▁노 골
▁적 폐
▁강화 하고
렸 습니다.

▁소 수의
▁합 작
▁N PC
▁필요 도
▁천 주교
음 식
▁한 겨
내 의
▁스스로 의
운 이
▁강 동
▁잇 따
▁환경 에서
▁인 명
작 업을
▁있는 지를
▁식 구
▁미 성
기 본
던 지
▁아 리스
병 ,
▁토 로
나 간
▁3 층
▁해결 하는
▁출연 해
▁구 하는
▁그렇 다
▁ 섀
경 험
▁명확 하게
b b
▁O r
▁되 기를
▁선 관
▁스트 리
천 군
▁무의 식
저 를
오 기
▁ 쏴
▁없 어진
▁긍정 적
▁애플리 케이션
종 으로
창 한
▁프로그램 에
▁많 았다.

▁수상 

▁ 힙
소 ."

회 계
▁요 괴
▁성 분이
▁실 적을
스트 의
▁ 다.
▁취 해
▁개 칭
▁확 대를
질 러
▁책 에
▁느꼈 다.
▁종류 가
▁서울 로
▁40 대
▁J T
▁바뀌 는
▁ 텅
▁10 .
▁ 펌
글 라
le ct
▁영 상이
▁고 찰
▁소프트 웨
밖 에도
▁유저 들이
▁2 명
▁묻 혀
▁중 년
▁대 사는
▁것 들
▁코 르
▁대학 에서
▁18 3
▁극 심한
시 각
▁ 껴
▁대 마
▁페르 시아
는 다는
▁있 음에도
▁상 자
▁작 전을
▁공 립
로소 프트
▁정신 과
추 가
▁하 트
c l
대 응
▁녹 아
▁명칭 은
다" 라는
▁199 9
▁유 죄
▁감 행
집 은
▁의 정부
▁문제 점
▁놀 랐
▁더 듬
홈 런
▁9 .
▁단 절
▁점 포
냐 면
▁원 고
▁보여 줄
▁가리 키
▁어 떡
▁심 화
▁월 요일
▁하 려면
▁조 회
N G
▁정보 

▁해 에
▁숫 자가
유 로
하였 을
▁호 의
▁파 업
▁ !

론 으로
네 트워크
▁상 해
▁선 대
▁축 복
▁아래 의
o ,
문 화를
▁형 식을
▁( C
▁이 세
▁적용 해
▁선 별
▁ 룸
▁박연 경:
준 이
▁답 이
▁아 크
▁원 조
유 치
▁팬 들의
▁요구 했다.

▁조그 만
이 동
▁주 문을
항 의
▁추 운
▁증가 하는
▁ 갯
가 야
▁성 균
▁이윽 고
▁구 청
▁파 격
▁ 줍
▁돌 을
6 00
.0 8
▁있는 가?
▁리 메이크
▁노동 조합
▁드 랍
▁것이 므로
▁동 의를
▁제공 해
▁밝 히는
클 래
▁인 물을
▁범 위가
▁세 인트
▁바람 직한
▁못 해서
▁인 연
▁수 주
▁하 라고
▁보 았다.

▁농 림
▁한국 전쟁
▁정치 에
▁최저 임금
▁매 직
▁안 성
▁장 점을
달러 를
티 는
석 과
기관 에
르 바
▁대 피
준 은
▁낮 게
인데 요.

▁옮 기
▁탄 탄
▁자료 가
줘 서
▁내부 에서
▁살 면서
▁않 습니까?

관 절
들이 다.

▁않 습니까?
▁존재 한다.

▁있 기도
f er
▁누 릴
▁절대 적인
▁했 었
▁함 경
▁구조 가
▁신속 하게
▁' 우
▁스 틸
▁이루어 지지
▁배 웠
▁" 하지만
▁지 주
▁ $
▁세계 는
▁귀 엽
▁증거 를
티 의
▁등 이다.
▁가능 하다는
▁상대 방이
▁싶 었
리 라.
▁가 마
▁공 고
mer ic
▁장면 은
모 니
▁월 간
버 렸다.

▁국무 총
▁북 동
▁각 국의
▁존재 로
▁걷 어
▁말 입니다.
▁온 도
석 (
▁우 라
▁ 윙
냐 며
▁높 을
▁빚 을
▁# 소통
에 너지
▁장 려
▁차 츰
▁3 억
▁어 휘
설 에
▁대 화가
결 한
소 나
▁후 진
▁안 되
타 나
▁태 도가
▁이 긴
: 30
고 객
▁행 위에
▁스타 크래프트
▁겹 쳐
▁고려 할
더라고 요.
중 공업
▁가르 치는
시 스코
지 노
▁모 시고
되었 지만
▁통 화에서
리 조
▁들어 왔다.
▁자유 의
노 트
▁기록 은
▁년 간
해 볼
▁계획 에
중 독
▁8 1
메 뉴
▁천안 함
▁밀 고
▁가 정의
▁10 1
▁속 해
▁폭 스
▁싸 움이
▁글 쎄
▁저 자
▁F or
▁제시 하는
놓 았다.
▁계 단
▁하나 .
▁3년 간
▁스프 링
▁시 위를
▁아니 더라도
.0 9
▁좌 파
셀 러
프 란
▁여 부는
▁극대 화
▁인식 하고
▁나서 야
▁아내 와
▁노 하
커 의
▁능 동
류 와
▁스타 일을
사 스
▁국민 연금
였 지만,
지 휘
u k
립 니다.
▁주 제가
▁아니 었다.

▁정 몽
▁4 개의
▁뿌 리를
▁하 긴
▁재판 을
▁폭 주
▁미 끄러
전 환
어서 는
▁마 틴
다. "

▁자 격을
정책 의
공 급
기 계
▁임 차
▁플레이 를
시 킴
현 을
▁상담 을
▁5년 간
▁마이크 로
▁토 벌
▁가 면서
▁토 모
▁얻 지
▁가능 성에
군 ."

▁1 기
▁의 상
프 

B R
▁197 1년
▁오 세
▁총 체
▁패키 지
▁에 디
녀 의
▁" 부
▁밑 으로
▁재판 부는
▁글 은
▁기준 에
▁있다 (
▁게이 머
▁강 의를
▁귀 신
▁196 3년
m a
▁홈 페이
▁나 경
▁뜻 한다.
▁바 나
▁반 찬
▁힘 은
▁경향 을
. g
▁당 대
▁가 방
세 서
▁대상 에
재 료
▁설 비
태 평양
▁소비 자의
6 8
번 을
▁중 개
▁낚 시
▁동아 일보
▁일 삼
▁맞아 요.

▁하자 .

▁이른 다.
▁기업 들의
▁바다 의
▁커피 를
▁없었 다고
설 은
▁르 네
▁홈페이지 

답 을
▁띄 는
ber t
▁것 뿐
▁아니 지만,
▁타 케
▁Com m
▁벗어 날
▁최 승
▁숨 겨
▁진 동
▁프로그램 은
▁단계 에
▁느 린
익 :
▁여러 분의
코 ,
▁브 랜
▁드러 났
아 래
▁생기 면
정 지
▁강 점
▁책 에서
▁여름 철
▁ 옴
▁재 학
▁자리잡 고
.0 %
위원 장을
▁참 을
▁다 채
▁의하면 ,
▁깨닫 게
온 의
▁소 리에
▁녀 석이
▁받 기도
▁개 월
▁꿈 이
▁필 드
▁고등 학생
타 워
▁ 잣
목 은
▁살아 온
▁전통 을
▁여 럿
스타 일
▁유럽 연합
▁넘어 가는
치 킨
가 슴
▁확대 해
▁침 착
초 의
▁"현 재
▁스피 드
▁예상 된다.
2 000
오 

▁허 리를
▁불 투
▁밤 이
▁울 고
▁활성 화를
스트 가
▁모르 겠지만
인 들과
▁실 어
5 9
▁출 력
▁하나 님이
▁법 제
▁15 9
▁ 쏜
보 (
▁땅 이
▁산 악
▁학교 의
▁별 개로
▁드러 내는
▁에 도
▁원칙 에
▁비롯 된
▁신 혼
▁빠 지는
▁정보 의
▁됐 다고
▁I t
▁연구 의
▁내 놨
▁창 당
▁뻗 어
해 

▁중 형
if e
시 다
▁2 번째
▁199 8
공 (
▁연 산
▁압 력을
▁미 흡
▁앤 드
라이 브
▁높 다는
▁체 인
▁한 눈에
▁스 물
▁유난 히
▁법 의
▁말 하자
▁들어 간다.
터 에
▁수록 곡
▁관심 과
▁언제 든지
▁평가 하는
개 는
▁유승 민
▁제목 으로
▁인 해서
으 려면
▁ ar
▁지 팡
▁용 납
▁성격 의
▁정 례
▁터 미널
▁보 너스
클 레
커 피
텐 데
▁어 때
전 부터
▁일 할
▁H .
( 201
▁아닌 지
H z
▁R o
업체 인
▁ 벙
게 요.

▁팬 들은
▁같 았
참 모
▁정확 히는
▁3 명
▁그림 이
렸 고
▁방 울
▁1 분기
▁걸 어가
▁" '
하기 까지
re d
▁ 뾰
▁해 리
▁김 학
이나 마
▁기 득
▁아마 존
루 미
▁ 씩
▁국민 적
▁배 고
▁구 로
지역 에서
▁의 문이
▁P art
▁기술 로
경 과
▁마련 된
▁소 망
ou g
▁면 허
▁간 직
▁의 도가
▁재 검
터 ,
▁도움 으로
기에 ,
P M
▁있는데 요.

▁가 졌다.
▁많 다고
▁교 양
▁" 인
▁# #
▁말 미
▁5 0년
▁손 실
이었 으며,
▁경찰 청
▁기 증
▁애 써
st agram
▁열 을
대표 는
▁원 산
▁지정 된
▁하이브리 드
▁조 언을
▁집 회
▁고 가
▁" 세
▁학 과
▁왕 복
▁(19 8
잡 이
벌 레
▁속 한다.
▁책 정
▁비중 은
▁장관 을
▁왔 을
▁세 로
▁기본 으로
▁사 육
봤 다.
▁독 창
사무 소
▁절 약
▁" 만
졌 으며,
병 과
▁주요 한
방 안을
▁모 로
▁강 구
▁상 환
▁S T
▁개 관
림 으로
▁국민 들은
▁지 을
am b
함 께
▁싶 으면
▁이상 ,
▁비 비
▁살 았던
▁드러 나는
▁승 인을
집 의
▁나누 고
▁9 2
▁찾아 와
공 에
▁기 점으로
▁예 금
▁수 차례
▁' 부
▁울 려
되 지는
▁언 더
▁들어 갔다.

▁간 이
윤 리
▁바란 다
▁루 이스
▁비판 하는
o on
▁B .
▁탄 력
▁열린우리 당
▁길 이가
▁접 목
종 교
맞 은
▁공 지
죠 ?"

▁힘 의
▁소 아
▁의원 들의
▁무언 가를
파 ,
▁작 아
▁20 분
▁견 딜
▁악 성
▁주 역
▁죄 다
▁관 장
▁폭 이
▁기술 적
▁브랜드 를
▁ 쫄
▁양 극
▁굴 러
▁카 자
저 의
▁남 서
▁중심 에
▁4대 강
(1 7
▁6 만
▁심 해
갑 을
▁시민 의
▁합의 가
▁1 시
군 에게
▁태 블릿
▁슬 퍼
남 :
▁출 혈
▁타 자
▁이를 테
▁배 경을
▁않 나
' 인
▁탄 도
색 은
▁전 복
▁키 스
▁노동 당
근 한
▁깎 아
▁로 비
▁지 도를
▁근로 자
▁전 지
▁뿐 이었다.
▁주 유
▁기 를
▁내 주
▁내 버려
클 린
▁잊 고
▁김동 건:
▁장 편
기 부
▁김 윤
▁흥미 로운
▁차 는
▁# s
▁공산 당
▁기능 은
▁라이 더
▁발언 은
▁감 동을
▁웬 만한
▁버 릇
▁정체 성을
베 르크
▁사 임
▁입 시
▁앞 으로는
▁주변 에서
▁일 들을
▁국민 들에게
▁U E
▁진 전
▁손 님이
▁옳 은
▁비 어
▁방 통
되어 ,
▁우리 들의
▁조 례
▁방 탄
▁실 리
▁헤 르
▁보 리
▁차지 한
포 트
▁잃 지
▁향 하는
▁ 룩
▁미 쳤
▁주 자
▁동 요
▁과 제를
▁하 마
▁혈 압
▁계 몽
리스 의
▁가 드
▁되 므로
▁흔 적이
▁대응 을
되 므로
▁명칭 을
▁리 조
▁누구 에게
▁# 데일리
치 도
▁많 다
▁변 하지
▁여 태
▁ 림
.0 6
▁생각 하며
▁콘 셉
▁주목 된다.

▁B C
▁찾아 야
▁정상 적으로
▁이해 하지
▁과 다
▁' 동
▁( 18
▁비 하
▁재 고
변 인은
L E
자 문
타 ,
오 ."

▁광 명
▁배 후
▁2 단계
▁예 수의
▁졸업 한
결 의
▁기여 할
▁정치 적으로
▁커 서
▁내다 봤다.

군 요."

▁지 냈다.
해 요.

▁서 른
▁클래 스
비 (
창 이
▁ 젓
▁의 아
▁아무개 :

▁했 어요.
▁랭 킹
락 에
▁뭐 라
▁가지 의
▁하 겠다고
▁제시 하고
▁김일 성
곳 을
▁대대 적인
▁이 었다.

▁치료 가
▁흉 내
▁재 앙
▁울 릉
▁경우 

▁물리 적
▁말 만
▁운동 의
▁사 원
▁무 궁
▁사람 이라면
▁ 톨
▁아 유
▁최 선의
아 와
▁규 제를
▁총 알
▁설명 해
▁하늘 에
▁위원 회
노 이
▁때문 일
차 이즈
만원 에
▁단 어가
▁했 으며
▁않 던
▁정의 당
en g
▁이야 기도
▁안타까 운
▁포함 하여
▁활발 하게
▁평 범
예 요.

▁기 꺼
골 이
▁것일 까?
▁영 동
▁머물 러
차 고
▁있어서 도
j ect
침 에
▁자 원을
▁에어 컨
▁노력 하고
▁부른 다.

위원 은
▁했 으나,
( m
▁갖 는다.
▁짜 증
▁생각 했던
▁지방자치 단체
여 객
▁n ot
▁새 우
▁플 랜
▁R es
▁돌아 왔다.
▁이뤄 지지
▁데미 지가
카 ,
▁해 치
▁운 이
▁될 지
안 에서
▁패 스트
▁초 기의
▁어렵 다.

▁꼬 리
▁숙 련
장 .
▁199 7
구 .
생 은
외 의
▁비 정상
연 ,
살 렘
▁R .
▁지 친
▁명 심
▁문 예
▁의 약품
▁두 들
▁태 그
▁여성 들의
▁틈 을
개 에
▁질 서를
▁해 요.

▁오 만
▁빠 질
▁불과 하다.
월 에
림 에
센터 는
▁분 비
▁부 인은
랑 은
▁야 당이
it al
▁유 가족
운동 에
▁두 지
▁백 작
▁메시 지
우 스의
▁호 전
▁변 한
국 어
▁197 8년
마 르
▁끝 을
▁양지 열:
▁소 스
▁빠 르고
▁벗 겨
▁스타 트
▁존재 의
블 리
▁" 도
▁196 9년
▁지금 부터
▁권 력의
▁듣 기
▁들어 서는
주 자
▁한 시
▁비슷 하다.
▁4 회
▁카 트
▁중국 인
▁진 한
▁총 무
▁ 쯤
▁출 국
▁판매 가
▁제안 한
▁쌓 인
필 드
카 

▁십 자
▁금 액을
▁방 에서
▁시즌 을
▁대 명
▁시카 고
▁중 ,
▁수 컷
▁분야 를
▁총 장
▁끼 워
▁능력 과
저 는
▁물 의
포 스
다 거나
▁믿 어
맨 이
▁굵 은
끄 럽
▁했 는지
▁몸 과
▁" 올
▁없 음을
리 거나
매 가
▁글 자
r es
▁하고 

더라구 요.

도 어
▁쿠 바
동 

▁전 역
합 이
▁진짜 로
▁쌍 둥이
▁북 아
▁밸 런
▁8 3
▁점 이다.

▁접 한
루 살렘
두 로
형 :
질 적인
▁천 문학
▁1년 에
인 력
k y
▁대표 로
▁비밀 을
▁들 러
▁직 장인
▁그거 는
▁찾아 서
▁석 탄
▁개 장
▁올 렸다.

5년 에
▁아이 콘
▁쉬 는
주 행
▁"무 슨
▁반영 한
▁신 고를
▁경우 엔
▁ 꽁
▁황 태
그룹 의
▁마음 껏
▁허 가를
▁깨 어
▁우 위를
▁아 들은
▁충청 남도
▁전통 적
▁하 러
▁손 자
▁동 정
▁싶 다.

▁루 시
▁' 일
▁진행 된다.
▁웨 스트
▁197 4년
▁지 뢰
▁유지 하기
▁재건 축
r ap
맥 을
주 신
▁코 어
▁발표 할
- P
▁[ 내용
▁달 라는
▁40 여
상 도
▁매 개
▁조금 은
타 고
▁신 당
▁8 ,
▁사이 드
▁중요 하다고
▁M y
소 유
▁진지 한
▁것 에서
느냐 에
▁미 츠
▁강 을
en ,
▁명 으로
맨 의
부 도
속 성
▁공격 력이
▁#f ood
▁재 개발
▁이익 이
( d
▁편 .

▁둘 의
란 은
▁영등 포
▁골 짜
▁모 듈
▁읽 은
▁중 점
▁소 리는
▁ 샴
▁남 쪽으로
▁친구 는
▁암 컷
▁성 추
▁바라보 았다.
▁수 강
▁지 중
▁감 사를
▁동일 하게
방 식을
교 수
만 명
▁노래 가
▁음 모
▁생각 한다
▁가 전
리스 는
▁감 당
▁공 시
질 에
토 ,
▁봅 니다.

길 은
달 이
민 ,
▁넓 게
식 물
▁부 위
환 의
▁퀄 리티
즈 마
▁C ol
테 일
▁익 스
▁않 더라도
시간 은
▁ z
▁때 때로
.... ..
▁수준 이다.
▁항 구
▁고 종
▁기록 되어
▁둥 근
▁절 벽
▁마련 이다.
▁이루어 질
▁걸 음을
▁마이크 로소프트
▁ 랜드
▁죽 었
▁코미 디
엄 마
▁여야 가
터 와
주 에서
▁ 뚱
▁끄 는
▁각 국
▁박지 훈:
▁원 리를
은행 이
M P
▁햇 볕
▁정 차
▁포함 하는
▁마 리가
ed ia
록 을
▁통 찰
▁폴 리
▁리처 드
a ir
선 진
▁감 사의
타 리
▁최 강의
빈 은
▁지배 하는
▁장기 간
▁띠 고
▁바다 에
▁버튼 을
십 자
▁추 산
▁KBS 2
▁나오 면서
▁관리 자
▁기 차
▁예전 에는
▁' 내
▁트 윈
▁체 력을
광 을
군 에서
▁일 이라고
▁밝혀 졌다.
▁결정 한
▁레 어
머 리를
피 니
▁투표 를
T C
▁부 흥
▁기자 간담
▁없었 습니다.
▁설명 한
변 화
▁엉뚱 한
▁단계 에서
▁ 람
▁처리 하는
▁당신 에게
▁비 닐
하라 

지 던
두 가
▁기상 청은
▁배 워
▁마 실
▁아주 머니
▁ 킥
렸 지만
▁없어 도
▁드 럼
▁연구 하는
업 은
▁방송 에
출 연
▁관 중
▁T HE
▁스코 틀랜드
▁사 직
▁있었 으나,
▁194 8년
▁물 고기
▁세 상은
▁11 9
▁트 래
▁[내용 ]
▁L TE
▁예정 이라고
공 산
나 카
▁오 일
an s
▁생애 

▁불리 한
▁#먹 스타그램
에 스
▁뮤직 비디오
▁민간 인
▁내 쉬
▁스 톤
▁육 상
▁원 인으로
오 (
▁휴 식을
▁사회 적으로
▁철 강
▁등장 했다.
▁양 상을
▁생 선
▁" 수
▁어지 간
▁더욱 더
▁사 적
▁우리나라 에서
( 현
지역 을
▁70 %
▁생각 한다.

▁시 체
만 

니 ?"

▁관측 이
투 어
H D
학 규
▁미 뤄
▁구입 할
▁목표 가
풍 의
하 느라
▁최종 적으로
▁계속 되는
re am
▁위험 에
▁인 도의
▁역할 은
▁생활 의
퇴 근
▁ 튕
▁전 념
▁# 강
▁면 적
▁일 고
▁삼 는
ot t
▁ 줌
든 지,
▁주 방
혁 

▁S W
▁밀어 붙
▁바 를
er y
in s
▁못 한다는
으로 의
활동 에
is c
▁인테 리어
▁신 호를
▁믿 음
▁존재 할
▁코 치
함 .
▁위 법
크 스
▁비 주얼
▁농 협
▁알 았다.
▁자 영업
▁중 점을
▁국가 안보
재 생
▁유 배
▁설 령
▁가 정을
외 과
지 거나
▁C F
▁이용 하면
주 간
▁지 체
친 다.

▁정 령
▁원 에
▁벌어 지고
▁보 름
▁불 태
버 거
마 스터
▁비교 할
세 스
▁보 람
▁다 툼
. S
▁정치 의
▁잃 게
▁전라 북도
호 흡
( 전
하는 지
보 통
▁스 티브
▁이름 도
문 제에
▁내용 도
▁진행 한다.

fr ac
▁유 포
▁때문 이었다.

▁2 개월
▁가 보
▁언제 까지
▁ 앰
▁" 비
적 이었다.
▁지 식이
▁194 9년
▁후반 에
- ****
▁노 영
▁배 터
▁ ed
▁정도 .

결 과를
▁시청 자
▁내 놓고
▁이 석
▁유 익
▁뒤 에도
▁않 으면서
▁받아들이 는
▁광화 문
▁중 추
▁세 우는
안 정
▁고 리
연 속
▁번 갈
▁196 2년
▁보기 에는
▁일 괄
바이 러스
신 한
후 는
▁마 포
▁협 상이
▁늑 대
▁주 교
장 관은
▁친구 의
▁어렵 고
▁I D
▁금 호
천 은
▁스 무
▁교육 이
이익 을
됨 으로써
▁민 감
▁전기 차
▁가 늠
으로서 ,
코 를
미 르
스트 

▁주 어야
▁티 베
▁버 스를
▁덴 마크
▁번 쩍
▁청문 회
▁오 카
토 니
▁1 부
근 무
▁마 산
▁법 에
▁뭔 가를
판 과
▁찍 는
▁선생 의
당 시
▁세련 된
학교 를
▁섞 인
▁어머니 와
▁패 시브
▁생각 했
▁JT BC
▁부 당한
▁드러 낸
▁국민 들
전 대
▁밤 새
▁그 루
▁실 태
▁유 언
량 도
▁이르 렀다.
▁장 치를
▁현실 이
임 의
강 이
▁응 

▁바 뀔
▁사 료
▁교 회가
▁두 드
▁W e
▁고 독
▁꼽 히는
시켜 서
▁변호 사는
▁5 회
▁참석 했다.

▁목 사는
▁돌아 다
▁얘 기도
▁흔 적
▁레전 드
▁여 가
▁5 G
▁간 과
▁총 장은
▁보인 다
▁실 수로
▁무게 를
▁이정 렬:
▁용 기
o ff
▁전 멸
▁보이 기도
▁매출 을
▁이 마
▁O n
변 의
▁지 수
▁이야기 하는
▁탐 사
▁진 정으로
▁갤러 리
▁소재 를
▁10 5
▁4 

▁가져 올
▁거 를
▁Com p
어 ?

▁홍 성
▁194 6년
▁가 나
▁진 흥
▁추정 된다.

▁해 왔
▁나왔 던
▁다음 에는
▁틀 린
배 에
▁잊 혀
7 8
▁시 뮬
▁미국 인
▁던 지는
▁수 없이
▁돌아 서
▁떨어 졌다.
▁가 축
가 들은
밖 의
▁살아 갈
구 조를
씨 에게
▁허 나
사업 의
키 와
▁기꺼 이
▁' 성
er 

▁1 :
▁방송 통신
▁사업 자
조 작
례 로
▁졸업 하고
▁서 두
▁전쟁 에서
▁연결 된
▁그 로부터
▁특히 나
▁생각 했다.

▁일 의
▁세 미
▁196 8년
▁당 을
▁투 여
▁침 체
멘 트
▁이 소
▁' 도
▁꼬 마
▁증 인
▁대중 교통
너 는
▁9 개
▁군 산
▁스 탈
▁협 회
▁정책 은
▁르 노
▁나타 내고
▁유니 폼
하 듯이
▁들어 가지
▁우 익
▁인간 에게
▁못 한다.

▁사 살
▁요 양
하 시고
▁ 뷰티
▁모두 의
▁참여 하고
▁다 물
▁인 디언
했 음을
▁지역 에서는
워 진
▁많 고,
▁보도 했다.
요 리
▁시 즈
▁적용 할
▁이 놈
▁지방 에
택 을
▁잡 힌
▁ 챌린
▁신 년
▁심 사를
-1 1
▁관 행
" 로
위 (
▁영화 에
▁비 전을
▁찍 고
▁차 이로
▁인물 이다.
▁들어 있
E X
시키 며
원 도
▁설치 되어
▁표 방
▁사진 은
▁놀 러
▁토 크
배 의
▁높 였다.

▁태 도는
▁그 릴
▁정 면으로
▁상태 다.
▁검 출
▁밀 집
▁길 어
▁시 에는
▁낙 찰
▁비공 식
▁염 색
L S
▁1 .2
관 념
▁발 발
▁B e
▁' 스
▁집 안의
▁구 성을
▁R &D
준 ,
▁플 루
▁오 게
▁앞 당
▁찰 스
▁시작 한다.

폭 탄
▁정 직
A I
▁실시 하고
▁문제 ,
▁반 전
▁국민 은
▁디자 인이
▁무 슬
▁때문 .

▁장 소에
▁20 20
질 과
▁파 르
▁증 여
▁달라 질
▁정규 직
▁최 경
▁매출 액
▁인 삼
너 무
▁수 사가
▁허 브
▁전 교
▁정 화
▁지원 하고
기간 을
▁앓 고
▁면 을
▁베 타
하나 ,
~1 5
▁국토 교통
6 3
▁모습 과
건 축
▁방 안이
▁전 라도
▁노 는
i um
▁ 벚
행 동
위 안
▁공격 할
▁덕 분
m at
.0 4
▁샤 워
▁뜨 고
▁생활 이
▁년 이
▁변 하는
▁9 3
▁지 사
▁해 서는
▁협 조를
▁가 늘
▁사용 된다.
▁귀 한
b le
▁환 원
▁운동 에
▁가깝 다.
▁일본 군
▁성향 을
▁ 갸
물 론
▁함 락
▁환 자를
▁이하 로
▁만나 면
▁조 은
▁C ar
' 란
▁그러 지
▁지지 율이
▁웃 었다.

▁평화 와
▁2 조
냐 ?

▁포함 돼
w e
▁평 을
▁사냥 꾼
▁돌아 간
▁근무 하는
▁이탈리아 의
▁갖 췄
운 의
▁재미 있
음 .
▁버 프
tern ational
재 와
▁김 연
▁수 치가
▁김혜 지:
▁맺 은
▁주 에
▁차 트
▁F .
▁못 했을
▁입 장은
▁상대 방을
▁보 전
▁상당 의
발 표
▁않았 지만,
▁싶 었던
씨 ,
▁있는데 요.
극 을
▁각 본
▁운동 은
▁15 00
람 회
▁상 생
▁지역 사회
▁동물 의
▁스 님
▁50 여
▁시작 하면
세 인
op erat
환 ,
▁판단 이
/ 3
리 브
불 교
▁경 부
▁재 료를
시키 면
S C
▁17 8
▁값 을
▁눈 치를
천 ,
법 률
▁9 4
▁막 혀
▁악 몽
▁발 이
▁범죄 를
행 성
▁놓 는
녀 를
▁뽑 는
▁# 유
말 고
▁업 체가
▁날 로
▁칼 럼
생 각
▁부르 며
▁늘어 났
▁주저 앉
▁술 에
▁치 면
가 량
▁등장인물 

쿠 라
▁선보 일
개 정
▁거 슬러
▁묻 어
▁ 툴
▁쓰 인다.
▁2 명이
▁토 너
▁ 냈다.

▁해당 되는
▁17 5
퍼 드
들에 겐
▁최고위원 은
걸 로
▁다가 오는
더 는
▁곽 재
▁작용 을
▁기업 과
▁ 씁
▁슬 라이
▁크 기는
용 

▁우 두
▁노 리는
▁비 율을
▁차지 했다.

▁냉 동
- B
▁50 만
에 의
▁실시간 으로
▁게임 에서
our n
범 이
▁당 직
▁마 드리
▁매력 적인
▁4 )
▁가 루
▁반 기
▁s p
▁뒤 의
▁공 짜
다 라고
▁발 송
▁"최 근
▁연습 을
▁인 과
▁문화 와
▁시 선이
er )
▁주 었
▁다 케
배 ,
▁풀이 된다.

▁갔 다.

방 안
▁의 도를
▁아들 인
목 의
ul l
▁듣 게
빌 딩
급 여
▁197 6년
▁콜 로
▁효 능
▁보이 게
▁80 %
▁데 에는
▁상당 수
▁영 유
▁소개 하는
▁장 로
가 시
▁설 마
카 드를
▁표 지
▁불 합
▁ 뜰
런 트
▁M VP
통 ,
▁제 고
▁예정 입니다.

철 의
/ h
▁것이 지
▁올라 간
▁임진왜 란
▁노 리고
▁UE FA
▁로마 의
하겠 습니다.
폭 이
▁기 성
▁장 대
항 에
▁사라 지는
▁오렌 지
▁우 정
심 에서
▁도 우
▁광범위 한
▁핵심 은
▁2 :
▁이 대
▁입 문
▁서 남
▁성공 했다.
해 져서
ig h
▁싶 습니다.
▁노력 하는
▁석 사
▁언급 이
▁애 들
영 (
▁즐거 움을
이 (
▁청와대 에서
란 드의
나라 를
▁안 산
▁공 장을
▁인 구의
▁순 매
▁교 향
▁워 터
▁관련 해서는
▁방 역
▁노 스
▁공 기가
▁골 고
▁정기 적으로
▁교 회를
▁플 러스
▁1 주일
▁해 독
▁공개 적으로
▁ un
▁판 문
▁태 평
▁상 류
▁찾아 보
▁직 선
▁인물 의
이라 면,
▁미 카
▁천 사
▁상품 의
▁해석 을
▁검은 색
옵 니다.

페 르
▁집 단의
▁변화 와
▁격 리
▁신동 진:
▁다 다
릭 스
터 널
▁비공 개
도 도
게 이트
▁활 짝
▁챔피언 스
▁의도 적으로
▁강 대
▁특 성이
▁착 공
▁쿠 로
cm ,
▁18 세기
라 인을
▁부 자가
▁시 중
EC D
▁동 조
▁사용 자의
▁김영 삼
▁수수 료
▁거야 .

▁얇 은
받 기
▁부탁 을
▁만 났다.
▁199 5
- L
▁작품 이다.
▁뉴 스를
▁수 단을
▁고 안
▁행동 으로
▁전 향
▁구 호
▁직 업을
파 워
▁활동 은
▁나뉘 어
▁가 산
▁예 루살렘
▁자연 을
단 (
▁고 아
▁그룹 의
활 성
▁증 오
조 치를
우 

▁니 시
브 랜드
▁강 호
학 적인
▁끌 어들
▁그 치지
▁자 손
▁랭 크
▁김 씨는
th e
▁요 렇게
▁p l
▁필 름
▁독립 을
리 기도
▁제한 이
▁시작 해서
▁내세 워
▁뜨 거
▁실 체
께 끼
▁증 진
▁목소 리는
7 2
되었 는데
▁설 사
백 의
▁포인 트를
구나 .

▁자 각
t on
▁기업 들은
▁상 시
▁눈 부
▁계속 되고
▁급 등
▁확 고한
▁역사 적인
▁ 옐
m in
경제 의
▁세 미나
▁이어 졌다.
아 .
▁말 대로
▁안 주
바닥 에
마 케팅
▁악 용
▁봉 건
분 한
▁마 찰
▁창 간
▁면 모를
해 왔다.

▁제공 한
▁춘 추
시스템 을
▁일행 은
▁다 룰
▁방식 에
▁장 이
운동 이
▁대 박
▁안정 적으로
▁3 .5
▁행정 구역
보 유
▁" 주
▁펼 치고
▁정 우
▁표 창
▁올라 와
▁것 만으로도
▁극 도로
▁살펴 볼
다 !

▁전 화가
▁위치 가
▁낙 관
▁쇠 퇴
▁수 사에
파 티
▁겸 손
규 제
▁배 에
▁확보 할
점 인
▁김 원
▁황 제가
해 방
당 했다.
▁이득 을
▁강조 했습니다.

▁ 에게
▁15 %
▁홈페이 지를
▁건물 의
고 (
화 도
▁우 물
▁구 리
▁차 로
▁소 총
▁추 궁
▁선 수를
차 적으로
소 스
▁비 치
▁본 사
▁학생 의
▁가격 으로
▁연구 팀은
네 ,
▁받 으면서
▁누구 를
▁구매 할
▁언어 의
기 .
▁발견 하고
19 9
겨 운
▁어르 신
야 를
▁일본 에서는
▁외 래
▁항 소
회의 에
네 이
▁도 무지
▁이 회
▁재 편
주의 ,
▁작곡 가
차 도
▁서비 스는
▁형 식의
열 의
팩 트
▁주 축
▁관 리에
▁목 에
▁증가 했다.
잡 을
▁왕 국의
▁자 회사
▁들여 다보
▁시 선
▁테 라
▁혼 돈
▁주 위의
하기 보다는
▁계획 "이라고
▁행복 하게
▁패 치로
▁보아 도
▁접 어
▁아 머
포 는
▁프 레스
▁원 격
▁S R
▁ 얀
▁반 쯤
▁매 진
우 스는
▁양 호
▁교수 ,
▁의 정
▁교 회는
2 의
▁사 대
▁행 렬
리아 는
스 틴
▁아니 며,
▁최 하
▁원래 의
▁유력 한
▁고 인
▁제 사
▁197 7년
7 1
▁열 람
▁9 0년대
▁꼼 짝
게 이
▁동 구
▁김정 근:
▁실 감
▁행 보를
▁카 테
▁상황 과
▁태 워
▁방안 도
▁규 정이
▁엔 진을
▁가 치는
▁기 도를
해 지면서
▁발생 하지
al e
▁하 우스
▁무너 뜨
ou l
매 김
▁니 코
▁기 적
▁공 조
▁여 전
▁비 는
▁세 번째
▁ 낀
▁필요 성이
▁소속 의
▁사례 는
▁한 잔
▁따라 가
▁있었 으며
▁가입 자
▁생 방송
여 대
▁B BC
▁ 찜
소 재
오 염
▁박 찬
+ 1
▁친 정
▁김 희
▁뒤 덮
▁헤 매
▁남 게
▁말 라는
▁W .
망 의
▁것이 었
커 니즘
▁지 내고
▁많 지만
▁가 도
▁문 체
▁남 자와
▁ 뺀
▁설립 한
▁돕 기
▁3 50
▁취 하는
▁강 서
노 조
▁이 끈
츠 와
플 래
m y
▁구 절
변 에
올 라
▁불 균
▁무서 워
무 의
▁한반 도의
▁12 5
▁연합 뉴스
▁김 범
부 담
▁이상 인
하였 다는
▁인물 은
▁인 조
칭 을
▁놓 치지
▁원 ,
▁추 후
▁누 르면
▁개발 된
▁박원 순
6 2
0년 에
▁2 의
나무 ,
▁그려 진
▁아래 에서
▁세워 진
▁않 겠다고
▁아프 가
켰 다.
▁제2 의
▁" 시
▁데 다가
▁몰 입
▁깨 어나
▁설 교
▁힘 에
▁무 자
▁유 비
S P
▁대 하는
▁컴퓨터 를
집 으로
▁2 ,000
▁옛날 에
▁파 산
▁사 카
▁미 라
▁무리 한
▁기 병
효과 가
▁문서 

들이 는
▁보 드
▁신 상
▁우 세
▁네 ,
) 이나
오 른
▁한나라 당이
▁돼 요.
나 르
R E
▁캐릭터 로
▁공간 에
- A
▁E .
▁국제공항 

▁그러 면서도
▁서울 과
▁영 장
랗 게
6 1
▁소설 가
▁음악 이
▁되 니까
▁피해 자가
해 지기
▁드러 났다.

▁담당 하고
▁도 내
▁추 기
▁이를테 면
▁분 담
▁작중 에서
나 기
▁소 닉
ap p
▁할머니 가
▁보 도를
▁분 의
▁프 렌
▁유 선
) 나
▁김 홍
▁프랑 크
피 부
▁발 렌
더 가
▁r es
그 릇
▁파악 하는
▁시절 에는
▁기 관이
▁울 음
▁기쁨 을
갔 다
▁세 속
▁ are
▁대 안을
▁정 경
od e
▁연 맹
특 위
▁실 전
▁부분 의
1년 에
▁본래 의
▁무 신
▁직 결
▁씨 와
▁운영 에
금 ,
▁인 체
떻 게
▁소련 의
▁상 응
▁' 시
▁법 은
▁드러 났다.
원 장
청 에서
▁전 방
▁중 기
et t
▁단일 화
orn ame
▁막 장
▁화 력
▁출시 한
▁없 으나
▁넘 은
operat orname
▁기 자의
▁선 수는
더 의
정 부는
국 

▁정 형
▁대변 인
▁바뀌 어
▁하 겠다.
▁사실 과
▁콘 스탄
▁포 스
▁무작 정
▁바꾸 고
▁훌 쩍
코 와
동 원
중 이다.

▁양 심
피 의
▁드 나
▁핸드 폰
▁* **
재 (
▁아이러 니
▁커 맨
▁불 사
▁다르 다.

▁방어 력
▁적 힌
▁성향 이
▁분석 해
즈 에
▁R ev
▁손 학규
번 호를
▁점 과
▁정 전
▁낙 하
곡 의
▁임 금이
▁자원 봉사
▁강 하다.
▁부지 런
▁연 평균
▁꿈꾸 는
▁둘 을
▁아프가 니스
▁' 수
▁전투 가
▁경제 적인
선 팔
두 리
▁바 늘
▁피 하는
개 인
애 가
▁담 임
▁금융 기관
▁조용 한
▁ 뱉
더 를
en n
▁겨울 철
▁조 사가
▁본 편
▁욕 구를
상 으로는
지 향
▁취급 을
▁보스 턴
▁연예 인
러 블
말 의
r .
도 서
▁그 놈
▁윈 도우
▁' 세
라 디오
▁과 세
^ {
▁까 마
▁사 신
▁사이 클
▁드 루
▁이호 선:
▁리 비아
▁싣 고
▁일행 이
▁- >
▁민주 노동
앤 젤
이지 요.
▁박 재
▁3 번째
▁달콤 한
을 ,
▁서울 시장
▁그것 의
▁겨냥 한
▁스 며
▁속 삭
사 우
▁휴 게
▁연락 이
▁선생님 은
▁바 그
속 도가
▁때문 인
▁자리 매김
▁것 보다는
▁9 1
▁저 가
▁시스템 은
강 화
▁지키 지
▁편 견
▁공 용
▁상 가
▁의 자
▁중앙 에
▁커 질
▁상승 한
▁곳 의
▁신용 카드
▁감 찰
▁연 못
▁편 을
▁오 디오
▁12 시
▁있 죠.
▁장 마
▁과 언이
▁제품 으로
........ ........
임 대
▁남 겼
▁반 문
▁정책 과
자 이
▁선 동
▁팔레스타 인
근 이
▁3 명이
▁유 형의
품 의
▁10 명
▁쓰 다
되었 다가
▁언젠 가는
▁저 그
▁만 찬
▁성 찰
암 의
▁금 세
로 이드
▁송 파
▁새 겨
▁가급 적
▁얘기 하는
디 스크
면 (
▁B B
▁초 중
▁ 듬
민 과
▁단 계를
걸 이
▁선 비
묘 하게
▁수수 께끼
초등학교 

▁E P
▁핵 무
만 9
' t
▁오스트 레일
▁막 강한
▁국방 부는
▁다 문화
▁급 진
▁ und
▁검 거
비 치
▁지 분을
▁보 기에
▁인정 할
▁4 인
▁1년 간
▁60 %
▁확보 한
▁열린 다.
▁경험 과
▁ 벅
채 가
함 .

▁이상 적인
▁박미 선:
▁A D
▁여러 분이
단 체가
▁유럽 에서
▁합의 한
▁깨끗 이
그룹 은
▁되 니
▁무시 무
▁라 스
▁B GM
▁회원 국
▁CC TV
▁블라 디
▁정상회담 을
▁호 평을
▁상 원의
▁C G
▁진행 한다.
▁잡 았다.
▁남편 과
▁과 반
▁세 븐
▁밝 힐
▁받아들이 지
▁생각해 보면
▁제시 했다.

▁여기 고
▁해석 이
테 이너
▁포 로
▁면 도
▁가져 가
▁필 자는
보 살
▁정 선
▁아니 며
▁고마 워
▁4 분기
▁P ol
▁4 번
▁인근 에
▁보 너
in c
업 ,
▁이 한
▁크 리티
▁미 쳐
▁개최 된
장 에서는
▁길 이는
정책 에
▁떡 밥
타 

▁통 틀
▁12 .
제 품을
▁대 주
▁제 도의
▁농 어
이어 야
사람 이
히 면
▁상처 가
▁비상 대책
▁확인 된
▁발매 된
▁동 향
▁나 이는
▁성 서
▁닦 아
카 메
▁시작 된다.
수 단
▁끝 내고
졌 으며
▁편안 하게
▁나 이로
▁치 안
▁생 체
▁보고 서는
니아 의
▁수 혜
▁사 야
▁의 자에
▁내 지는
▁없다 며
▁승 차
플 로
▁S D
▁광 산
▁미사 일을
▁30 만
▁경제 에
빌 리티
▁영 어를
▁들 리는
수 인
론 

▁아이 들과
▁팬 덤
▁자 식이
▁만들어 내는
통신 은
싸 움
▁전문 의
국 장
▁무 거
▁대표 이
오 르
▁급 격한
▁높아 진
어버 린
▁도와 주는
▁공 영
▁교 토
▁하 실
▁주 고,
▁개신 교
변 호
s p
▁ 돔
▁능력 에
림 ,
▁"앞 으로
▁라 면
▁없었 다는
추 를
▁ 칙
i am
지 수는
▁줄 거리
▁사 설
( 주
부 동
랑 을
커 는
경 으로
▁게 이지
▁쓰러 져
하시 면
사 법
▁하 겠다
금 액
▁이승 만
▁개발 이
▁있 단
▁황교 안
저 녁
▁지적 도
or s
▁재 수
▁판단 할
보 와
▁의 논
▁3 분
▁찾아 내
▁연 일
▁영향 력
▁조 형
▁시스템 의
▁헌 터
▁자 라는
▁아끼 지
▁"그러 나
▁떠 났다.
▁패턴 을
▁' 영
▁개정 안
우 (
▁포 토
저 트
▁이 다
▁자 립
▁입 양
으므로 ,
한 다면,
궐 선거
▁10 억
▁ 챕
▁추가 적인
▁ 걔
▁쉬 워
▁캠 핑
▁잠 실
량 한
▁속 속
▁마을 에서
▁빠 뜨
제 일
케 인
▁전투 기
두 면
▁발생 하고
▁카 오
강 점
▁3 세
▁장 인
▁인 위
▁부 가가
▁입 술을
▁봐 서
▁미 얀
대 회에서
▁로 빈
▁체계 적인
모 임
▁프랜 차이즈
▁리 드
▁위 상을
▁고 의
0년 대에
▁전 산
는가 ?

침 이
▁쓸 쓸
시 즘
▁연 세
▁요 원
▁자체 도
증 (
래 가
셨 습니다.
▁기 하
▁자유 와
▁안 쪽
▁평 이
▁홈페이지 에
▁뜬 금
▁현실 은
ow er
▁자동차 를
▁꾸준 한
관 인
▁내일 은
을 때
▁' 불
▁기운 을
▁기 대가
▁D LC
▁공정 거래
▁V ol
돼 서
▁199 0
▁계열 의
V A
▁감소 한
▁유대 인
▁보 행
가 .

바 겐
▁기 분을
▁못 했다는
▁귀 중한
▁보 시면
▁구 름이
환 자
온 을
▁감독 을
매 일
▁선택 의
▁것처럼 ,
김 없이
설 명
▁짐작 할
운 을
▁되었 는데,
▁개념 으로
목 표
고 시
▁차량 의
2 천
▁C S
암 ,
▁티 셔
▁세 분
▁상태 였다.
▁보호 하기
▁조 장
▁K O
결 혼
▁전투 에
▁18 2
▁따라 ,
▁유 신
▁권 리가
▁입 으로
겠 지.
in a
▁감옥 에
관 리를
▁여 타
▁예산 이
▁이용 자
가 입
▁만든 다.

▁저녁 에
▁연 안
▁우 연
▁파 멸
▁묵 묵
대 도
▁중 시하는
▁마르크 스
▁이것 저
누 스
시키 려는
술 ,
▁알 리고
비 전
▁업무 에
주 군
▁해 발
▁기관 의
▁CP U
옷 을
▁좋 지만
▁누리 꾼
▁저 마다
▁드 라
▁중 에도
▁기 피
▁땅 의
▁3 60
▁놀 랄
▁실시 하는
매 체
▁무 라
거 의
▁화 면을
▁" 진
▁자 식을
▁체계 적으로
▁플 러
▁추진 해
▁증가 했다.

▁열 리고
▁나서 고
▁관 해서는
▁움직 여
▁줄 이기
us e
▁다니 엘
▁브레이 크
▁휴대 전
▁학 년
http s
▁이 규
▁골고 루
▁마련 할
I n
슬 링
▁" 북
▁원내대표 가
작 인
▁세 력의
본 부는
▁못 하고,
▁전략 이
1 일
▁시민 사회
▁ 읊
비 율
▁금 전
▁이루어 졌다.
▁웨 이
▁하나 님을
▁서 북
창 의
▁가운데 서
▁이 웅
▁일 어서
▁들어 와서
▁인 재를
▁거 뒀
▁창 단
기관 인
받 는다.
G A
▁4 개월
▁S oc
▁공 기업
▁자녀 를
▁리 스
▁깨닫 고
▁완 결
▁선 착
▁돼 요.

▁눈 썹
▁산 소
2년 에
▁진 리
레스 테
하 :
▁1 단계
▁' 남
▁입 이
▁50 대
& A
케 어
▁맡 기
정 원
▁로스 앤젤
심 판
▁똑 바로
▁중 학생
▁금융 감독
▁실패 를
▁불 려
유 키
▁뭔 지
태 가
▁하 므로
▁국 회를
▁그리 고,
▁보도 합니다.

▁스페 이스
▁이 르게
▁적 자
i us
▁사라 졌다.
버 섯
▁해 봤
▁성 벽
각 의
y le
이었 으나,
▁할머니 는
▁기간 은
▁O S
▁종교 의
구 려
▁벽 돌
청 과
▁동원 해
중 간
정 도로
▁시 기의
▁차별 화된
▁어 둡
r ic
▁196 7년
▁했 더니
▁종 속
▁후보 자의
▁의혹 에
▁법 적으로
▁지 성
▁걱 정을
▁기자회견 에서
이라 든가
제 도의
▁ et
▁패턴 이
더라구 요
▁학 력
▁라 운
▁ 뮌
▁보 도가
▁내려 와
▁싫 은
▁지식 과
▁최 재
▁E BS
층 으로
▁파 우
▁직 권
▁하나 에
지 며,
▁전 원이
▁ 벡
▁w ww
수 용
▁추 경
▁맞 으면
▁메모 리
▁폭 염
되었 습니다.
▁어 필
▁포 격
▁어리 석은
기능 을
▁제1 회
▁주민 등록
▁발 족
▁프로 그래
▁이야 기로
▁위 력을
인 식
▁샤 를
▁죄 책
▁성 도
▁고유 한
▁톡 톡
▁뾰 족
▁생 기고
▁값 이
/ 2
▁화 제를
al k
▁감 고
▁단독 으로
네 요

▁ 춥
▁브 래
니까 .

▁떠오 른
▁편 한
) 라
종 에
▁나름 의
▁불 의
▁ 쑤
- M
▁6 천
▁세종 시
르 와
▁하겠 다.

re t
▁x x
y m
▁에너 지가
3년 에
▁ 三
▁군 단
배 로
▁알 라
▁북 극
▁얼어 붙
가 요?
기 보다
바 나
프란 시스코
청 소년
권 

▁간 략
릴 라
컴 퓨터
▁나타 낸
론 (
▁영향 력이
▁패 스
모 양
해서 ,
▁왕 조
▁우 는
거 니와
▁교육 에
했 으니
▁공 의
▁배경 이
▁당 기
▁내려 오는
드립 니다.

크 리
▁김 보
돼 지
▁굳 게
▁청 탁
▁데 가
▁없 으니까
바 가
장 에는
홍 보
▁최고 경영
▁약 혼
▁정책 위의
▁맡 았다.

▁Press ,
' 라
등 으로
▁결 여
▁바닥 을
▁하 룻
▁여 느
▁역시 나
▁욕 망을
▁맘 에
님 도
▁포기 하지
▁애 정
편 은
▁때 나
▁원 동
at er
▁홍 선
▁만들 지
▁반 란을
▁선생 이
▁취 미
▁갖 가지
▁병 원으로
교 과
▁도시 로
▁나 비
▁급속 히
▁정 의를
▁교육 부
종 과
▁면 적은
▁최 민
▁허 구
족 은
밴 드
▁수 단이
▁비용 은
▁애매 한
▁덮 어
▁관계 의
▁간접 적으로
註 ]
▁소비 자가
▁낳 고
▁친구 들
엔 터테인
▁들 으면
▁아 담
T I
센 스
▁대응 하는
혈 을
▁의 류
▁거 미
▁논 문을
▁걸 어서
상태 에
▁ 얕
▁박 병
▁서울 을
구 만
큐 어
▁이 빨
▁유 학생
▁도 널드
해서 

짓 을
이라 든지
▁그 치
▁우 체
3 )

▁전두 환
순 간
▁집 의
▁착 륙
▁다 뤄
▁손 톱
▁ 맴
▁A meric
에게 만
▁가깝 게
러 를
▁농 사
▁명 목으로
▁, ,
▁골 을
▁믿 음을
▁ 앗
▁제도 적
ᄒᄒ 

▁방문 하는
▁블 레이
▁냉 각
▁부 통령
▁생각 하기
▁같 기도
▁않 자
▁마땅 히
▁구속 영
▁4 0년
▁5 ,000
▁곧 장
▁기억 하고
▁흩 어져
한 ,
▁플레이 오프
▁육 박
▁불어 넣
제 에서
▁하 인
▁부 도
) 에서는
▁하 반
▁상대 는
▁모르 겠다.
▁개 화
▁합 창
▁기반 의
공 사는
▁w as
이 야.
엄 을
▁허 물
▁조사 됐다.

이 후
▁안 은
▁범 행
생활 에
미 아
▁지 었다.
▁아이 언
▁3 단계
▁성과 가
메리 칸
▁오 징
▁규 탄
온 은
▁ 눕
▁어깨 에
▁일반 인
▁하였 고,
▁급 하게
▁습 관을
▁급 한
▁25 %
▁) ,
너 의
▁확보 를
▁' 진
곳 이
브 를
▁즈 음
▁조사 에서
▁주 를
말 은
▁소 니
▁푸 틴
▁제 재를
▁선 우
▁구 부
▁가 솔
▁나 이를
처럼 ,
프로 젝
▁끼 어
▁거 리는
▁원 가
▁정 재
▁할 리우
▁9 ,
계 급
▁도 래
해 에
영 

히 기
▁오 크
▁시 속
T )
▁발휘 할
▁유 나이
지 ?"

▁' 최
렸 습니다.
▁12 개
▁견 인
▁사태 에
▁관 점
▁보호 하는
▁시각 을
나 래:
거 라
▁사 탕
광 이
▁김 두
▁그 랑
▁' 소
▁지상 렬:
▁고성 능
▁챙 기
▁2 분기
▁소 주
▁얼 룩
▁내세 운
▁교 실
▁이안 :
▁계 단을
at ed
▁있는 ,
▁스토 리를
▁인 프
▁아사 히
▁김 필
▁부 디
▁호 박
▁학교 가
▁몰 랐다.
처 에
▁쿠 키
▁자 들이
▁연속 으로
▁" 노
▁도 깨
조 절
▁해주 고
▁남북 한
▁시 크
▁평가 

▁소유 하고
리스 가
▁늘 었다.
▁어디 에서
▁여 파로
▁시작 하면서
네 마
▁시청 률
▁도입 을
▁객관 적인
국 수
건 지
▁강 간
저 축
▁시 체를
▁아 비
▁' 여
s c
▁하 차
▁하락 한
▁맥락 에서
▁섬 의
▁원칙 적으로
▁보 자.

▁언 어로
▁1 개월
▁있 기를
▁꼼꼼 히
▁돼 .
▁오 해를
▁쳐 들어
▁휴 가를
▁소비 자들의
▁문화 에
▁지도 부
▁동 국
▁거야 ?
▁누구 보다
▁지혜 를
▁알 겠습니다.
드 린
n ow
▁타고 난
▁노 인이
▁본 관은
▁거 란
H O
▁주도 권을
▁이산 가족
▁확보 하고
▁순 조
▁스 쿨
한 지
▁한 류
▁정 하고
기 야
▁요구 가
할 수록
▁시 도를
▁오 신
모 와
▁통 일을
1 :
▁분위 기는
암 은
문 제가
▁성장 한
철 은
▁주 일
▁스 텔
▁같 다"고
▁김 장
▁하면서 도
▁"대 통령
▁재미 있게
▁의 욕
▁제 왕
▁선물 로
▁고려 해야
채 권
▁지원 해
(1 6
▁동 래
▁미성 년
▁지 으며
▁긴 장을
▁" S
▁없었 지만
▁꾸 려
▁c on
융 합
▁있었 기에
팀 에
5 :
▁당당 하게
송 이
▁북 방
▁늘 리는
▁이벤 트가
초 ,
들 었다.

집 ,
▁창 고
▁카 리스
▁엿 볼
▁선보 이는
▁인 건
▁호 랑이
케이 드
▁마 당에
朝 鮮
▁"그래 ,
거리 에서
위 치
▁정 이
▁유 재
▁신 문을
됐 으며,
교육 의
▁이것저 것
▁배제 할
▁않 느냐
▁ 섰
▁영혼 의
▁전망 된다.

▁용 어를
▁둥 글
▁성균 관
▁부산 광역시
▁냄새 를
▁채널 을
▁경제 적으로
▁청 계
▁가족 들이
신 용
▁제 치고
▁ 퉁
면 허
▁감안 해
▁끊 이지
▁# 빵
▁멀리 서
▁할 까
거 에
디 지
▁드라이 버
▁당 나라
▁바 짝
▁피 력
▁걸 림
▁판단 에
▁가 꾸
▁팔 고
▁하 태
▁0 

es e
▁더러 운
▁현 명한
▁좌 익
▁발언 이
▁깨 고
▁남북 관계
던 데
▁본 질을
▁덧붙 여
▁지적 한
▁쓸 모
▁혈 관
습니 까.
공 천
▁정 찬
▁자유 무역
▁만들 고,
▁소 폭
▁프로듀 서
말 라
▁11 .
무 니
증 후
▁넓 고
▁부 부는
▁3 :
▁열 두
술 이
어 졌다.
▁K 리그
▁' 다
▁깔끔 하게
▁ ad
팀 

▁투 명한
▁9 회
ᄏᄏ ᄏ

▁공격 적인
▁이 보
▁수 류
▁휴 양
▁지나 고
▁산 에
▁않았 다면
▁적절 하게
무 리
▁ im
▁미 워
▁전문 적인
▁민 사
▁상태 의
▁해 볼
한 다"며
▁부여 하는
▁쇠 고기
▁뻔 한
▁그려 져
▁설명 

▁비 하여
수 아
▁방송 이
ro p
( b
▁잠수 함
▁그 들과
▁여 론을
▁말 로는
중 에도
▁진 격
▁작 사
▁다 각
▁ 쌈
▁좌 석
▁지역 과
▁하루 를
▁색 이
▁르네 상
▁대 꾸
끈 한
r en
▁박지원 :
▁이룬 다.
▁예 가
in ,
▁모른 다고
난 을
▁나타난 다.

▁이유 에서
님 .
▁싶은 데
▁않았 습니다.

ch e
애 니
( t
▁일반 적
▁낙 동
▁막 판
체 스터
▁요 정
▁기록 해
갈 비
▁화 상
▁상 인
▁스 톰
미 국
▁높 다고
듯 ,
▁말 았
▁수준 에서
▁무한 한
▁절 제
▁계획 이라고
▁대응 할
좋아 요
▁단 골
▁했 으면
▁생각한 다"고
▁제기 된
▁승 부를
▁국 악
▁합리 적
o le
▁연 사
▁분 홍
▁W W
▁땅 에서
U N
▁있 죠.

▁않 기로
▁산 정
▁멍 청
▁밝히 지
▁모 노
▁크리티 컬
▁무 겁
▁첨 부
▁위 태
너 가
▁횡 령
▁임 금을
▁안 된다.
▁호 는
▁쟁 점
화장 품
[ 註]
▁처 참
광 주
▁넘어 선
▁신 세
▁권 위를
▁트 라이
▁이루 라:
▁눈 의
▁I s
렸 다
오 니
▁북 쪽으로
▁항 일
▁압도 적으로
음 으로써
▁건 전한
술 은
대 왕
▁전 이
▁의원 ,
▁드러 내고
터 에서
▁신 진
▁당 국이
▁돌 리는
▁챔피언 십
▁남 에게
했 음에도
▁언급 을
회 사가
▁호응 을
▁흡 사
▁3 분기
▁개발 해
▁고 개
▁가 던
▁포함 하고
▁공연 이
녀 는
▁생각 과
▁지 위
상황 을
▁캡 틴
▁아마 추어
귀 가
▁핀 란드
▁오 르고
▁향 상을
▁대 부
▁어려 서
-1 6
▁인 력을
▁지향 하는
▁" 소
▁구성 해
탈 을
▁실패 로
▁보 입니다.
▁앞으로 의
i )
▁카메 라를
▁하나 다.
▁의 심을
▁남 짓
▁곡 이
량 ,
체 ,
https ://
▁경 직
' .
▁음 원
\ c
r ess
▁논 리를
▁설치 해
▁태 도로
▁코 를
▁인 정을
▁산 타
▁결국 에는
▁대 국민
▁등 

▁국내 에서는
▁약속 한
▁( A
\ in
▁아닙 니까?
했다 며
▁차 이나
▁경 전
( 20
▁백 화
어가 고
▁놓 았다.
▁숨 진
▁공 평
▁숨 이
8 2
들 지
로 이
황 이
위 권
▁팽 팽
▁파 손
▁거부 하고
▁단단 히
프 에
▁출 품
▁백 신
▁영 수
▁말 하기를
▁' 김
업 자
아 닌
▁캐 논
▁그녀 와
▁샌 프란시스코
▁무 단
히 로
▁넘 긴
▁벤 치
▁우선 적으로
▁만 다.

▁묘 한
} {
▁196 1년
▁생 명이
▁사이 에서는
▁일 컬
▁한편 으로
▁줄 은
▁마 블
▁4 000
▁무엇 일
▁채 소
ol low
▁이동 하는
▁여성 들은
하였 는데
▁됐 을
수 출
▁쌓 은
해 는
▁언론 이
▁사 슴
▁일제 강점
언 어
▁자체 로
▁사 연
▁풀 고
▁결혼 한
▁나무 가
▁트 루
▁G DP
▁고 르
▁"아 직
▁하 얗
▁면 세
▁영 감을
댔 다.
▁이때 부터
▁대한민국 을
▁아 틀
▁쿨 타임
▁문제 다.
▁흐 르고
▁상대 에게
▁세 제
▁김 덕
티 노
▁입 대
▁정도 이다.
▁실질 적
책 은
▁그래 요?

▁애 완
▁자체 적으로
▁선거 가
▁완성 된
▁것이 냐
▁실 재
자로 부터
▁문서 의
▁협 정
▁라이 온
▁왜냐 면
영 과
명 이다.
▁선 천
▁역사 적으로
시오 .
▁유 진
n ew
철 학
▁주도 한
마 법
▁전 일
▁군 대가
▁옮 김
▁흘러 내
▁이 휘
▁달려 가
했 듯이
▁A 씨는
벨 트
▁신 라의
생 으로
▁업 적을
▁넓 혀
신 당
▁올 스타
▁이야 기의
▁이전 부터
▁돌려 보
▁ 日
▁도 리어
▁빠 지게
▁칼 리
계 층
▁장소 에서
▁방 면
감 치
▁공 방
▁등장 하지
▁생겨 난
▁의원 에
▁피 격
▁항 암
▁명예 를
▁버 린다.
▁급 제
▁인 문학
▁구멍 이
▁연 설을
▁196 5년
▁몸 무
▁d es
m s
물 인
바 는
▁길 드
▁2 호
▁화 랑
▁송 영
▁모 여서
▁어 쩐
▁스스로 가
▁5 00만
▁신속 한
▁긴 밀한
곡 은
▁아니 에
▁재 위
▁생산 을
▁불 에
구 요
at ch
ist ory
▁효과 도
▁대중 의
▁매출 은
바 탕
▁강화 할
주 세요
녀 :
▁무 기가
▁곡 은
▁어렵 다고
▁방지 하기
림 과
8 3
(1 2
▁걷 고
▁에 버
▁성장 할
▁안정 된
▁상 봉
▁돼 지고
주의 적인
▁사 가
▁모 자를
▁정신 적인
▁이 송
▁딸 의
▁따 름
▁능 가
▁시 라
▁로 열
▁ 뷰
기 소
▁S F
7 4
▁김 씨
" 에
▁지방 을
▁기준 은
▁원 료
고 등
▁나 열
기업 이
▁기 인
▁때문 이라는
▁내려 온
▁강화 해
▁언급 된
쯤 은
. kr
졌 는데
▁업그 레이
▁사회 적인
패 로
▁사고 의
▁통 째로
▁자극 을
▁영화 에서
▁이 기는
▁거래 가
▁지 탱
▁3 시간
▁응 모
▁오 가는
▁임 종
▁아름다 움을
▁홈런 을
▁P ar
실 

▁관 철
▁개정 안을
▁주장 도
▁임 직원
▁부문 에서
정 권
▁산 이
▁이후 부터
▁수록 되어
▁성폭 행
▁확정 된
▁방사 능
▁성격 은
▁ 뽐
▁구 독
▁요구 할
으로 

▁언론 은
학 기
▁잉 여
까지 ,
▁존재 하고
▁스킬 이
▁의 사의
▁작품 에서
▁" 응
▁태 백
▁호흡 을
▁비 추어
▁바란 다.
▁같 으면
▁' 상
▁시설 이
▁보편 적인
▁장소 로
서 스
▁# 셀
더 라.
▁시 조
▁보편 적
▁바 디
▁임 용
▁일 인
▁그런 가
▁어울 리지
▁동작 을
▁여름 에
▁넘 지
▁욕 심
▁\ math
복 음
▁ 늪
설 계
▁미국 에서는
▁필요 하다"고
▁정도 만
▁상 관이
▁비즈 니
지 는데
가 지를
▁영역 에
링 크
▁8 회
▁올리 브
▁부 상으로
덩 이
▁아줌 마
▁캐릭터 는
▁대 가를
▁빠져 나가
▁민 병
▁모 모
빈 의
▁동 창
훈 이
▁일 ,
▁남북 정상회담
▁9 00
▁궁 궐
▁틀림 없이
대 신
▁고 래
▁떨어진 다.
▁짝 이
H A
▁발 목을
이라 니
터 스
▁그림 은
▁열 렸다.
▁밀 가루
▁것인지 ,
▁ 얌
한 다

▁ 댐
▁강 좌
▁노 선이
▁단계 로
▁정신 의
네 일
▁병 에
▁영국 에서
▁이 노
▁공부 하는
▁이때 는
▁김 천
▁벚 꽃
▁두려 움
▁대 회를
▁잔 인
우 라
▁썼 다.

▁찾 았다.
메 르
▁처음 이다.

▁희망 이
루 

▁논란 에
▁선언 한
▁듯 했다.
▁어 음
▁" 야
▁1 백
▁가 뭄
색 과
▁여담 

▁아래 와
▁탐 지
쳤 던
할 머니
▁수 고
드 래
점 유
▁압박 을
▁광 해
▁창 건
▁SK T
▁이 브
메 달을
▁마 리의
▁직원 들의
시키 면서
▁선택 이
▁유 격
▁사랑 하고
▁최우 선
▁불 출
▁소 원
▁별 의
▁미래 가
주 며
▁( 20
저 널
▁말 부터
▁여 겼
▁ 넋
▁새벽 에
▁나 을
▁학생 은
▁J ohn
▁숨 은
▁살 리기
▁t v
▁국민 과
▁구조 조
▁공격 으로
▁네트워크 를
▁김 소
▁군 이
일 간
▁문 장을
한테 는
▁체 코
법 적
▁커 녕
▁된 다"고
▁대 권
▁고려 하면
하 더니
▁초 고
점 검
▁일 깨
▁약 점을
▁지역 별
▁했 다가
▁눈 과
▁하 겠습니다.

▁ 귓
▁기울 여
▁자 기도
수 행
▁전쟁 은
▁아 기를
▁ 헷
▁1, 2
▁유저 가
▁생각 하게
교 섭
▁조 별
▁수 치를
▁A nd
▁나왔 을
▁버 렸다.

▁여 부가
▁프 롤
▁지적 하고
▁우리 와
퍼 를
▁일본 으로
▁새누리 당이
▁서비 스의
▁않 거나
▁전해 졌다.
▁상 점
▁사 치
▁말 려
▁아 지
▁18 1
▁주인공 인
▁지적 을
서 양
산화 탄
▁판 사
▁자연 과
▁배 트
▁일 조
ᅲ 

▁선보 인다.

▁초 고속
▁인용 해
▁깨끗 하게
▁명 성
▁알려 주는
▁당사 자
am es
c on
en er
번 은
▁오 디션
~ 40
▁1 .6
▁실 적이
▁존재 는
▁선생 은
▁베이 비
▁전 대
▁오 셨
▁크 라
했 었다.

▁하 버드
▁남 용
▁회 장을
▁서 류를
▁맛 은
▁중 성
(이 하
었 는지
▁물 질을
▁인 연을
▁살 리
상태 를
▁만 기
▁영 업을
▁종합 적으로
공 으로
▁총 회
▁존 속
▁소설 은
▁정 준
▁레 닌
게 ,
찌 감치
▁다니 고
▁윤 성
▁요 인으로
▁이름 과
▁설명 은
▁산 화
▁국가 적
걸 음
▁투자 하는
네 스코
맥 스
▁박 주
▁채 팅
▁연 혁

▁낸 다.
▁시 진
7 00
▁성 범죄
▁진행 을
▁왔 다고
) 보다
▁사 죄
▁정보 화
▁콜 롬
모 드
▁사령 관
▁아 토
▁퍼 부
▁장기 적으로
▁넣 어서
▁상 표
▁로 렌
▁규 격
▁맡 는
▁후보 자가
▁향 이
▁무너 져
▁모자 라
▁L ove
▁16 5
▁사 우스
▁연 도
▁4 가지
▁자발 적으로
▁트 레이드
▁적 시
▁모 션
▁예술 가
▁고민 이
▁모 시
▁" 상
▁경제 성
▁땀 을
▁로 즈
▁경험 한
▁개발 ,
▁따 서
▁' 노
▁부 양
▁특 기
▁P P
▁현실 에서
▁맞추 는
▁국 적
▁물건 이
▁주 세요.
▁행 적

▁총 재
날 의
▁요 건
▁들어 있는
▁스타일 의
▁멈추 고
희 를
▁외 부의
▁미 쓰
▁진 리를
▁가능 하며
▁해결 해
▁신경 쓰
▁결정 은
습니다 만
▁참 사
▁혁 신을
▁백악 관
▁쓰 던
▁시 인의
▁행 하는
▁찔 러
▁바 지
▁회 동
▁들 었던
▁설 정을
▁공 손
▁가능 하다고
▁공격 은
▁있는 

▁엘 프
▁객관 적
▁쏘 는
저 럭
▁사 사
일 지도
버 전
▁보고 는
▁지켜 보고
▁주도 하는
와 ,
▁한 발
▁비 자
▁연 기가
▁G u
령 (
▁유 보
▁"아 니,
류 로
시설 이
▁플라 톤
▁캐 리
L A
▁기 조
▁끝나 지
▁전 경
▁아 랑
▁활발 히
▁10년 간
▁양 측
▁기획 재
frac {
▁대미 지
▁90 %
▁선생 님의
나 ?"

▁생 김
▁브랜드 의
▁그거 를
▁만남 을
▁5 

▁200 만
▁상황 에서도
▁지나 간
▁구 동
▁17 7
루 ,
그 는
i -
럭 저럭
▁어린 아이
▁민주통합 당
▁연 세대
▁가진 다.
▁대다 수의
▁동남 아
▁인 턴
업 으로
▁독 려
▁꼬 리를
▁불 완
▁항목 을
▁벌 레
▁탄 소
▁# 이
▁두 개
▁방 안에
▁원 으로
▁철학 적
▁대 포
▁문서 에
▁그러 기
방 ,
▁사람 에게는
정 하고
▁가능 하며,
주 세요.
▁ 國
▁과거 와
터 

검 사를
품 은
▁자 처
▁보여주 며
▁일 산
▁샘 플
▁진 흙
▁소개 해
▁배 열
▁지 대
▁나 눴
▁따 온
▁마 오
▁특 성에
] 의
구 간
반 은
시 도
▁아닌가 .
i ence
오 자
▁1 :1
이지 ,
▁뒤 인
▁동 호
▁민 첩
▁천 하
d u
▁등 지에서
▁마 쓰
▁KT X
▁국 군
▁안 될
▁질 을
▁해결 해야
▁시대 적
▁비 주
▁피 자
▁선보 였다.
자리 에서
▁평 행
▁신 작
▁일이 었다.

▁ 롬
▁중국 어
▁키 리
▁가정 에서
▁도 를
▁도 로를
▁진 도
▁Q u
▁형태 는
▁모습 이다.
▁매 스
▁본 토
파 인
▁통 증을
▁친 노
▁읽 기
▁공간 으로
▁결혼 식
▁하 자는
▁높 지
▁남 측
군 데
음 .

▁공간 에서
▁지 었다.

복 은
▁내 적
▁수록 된
▁규 정한
▁말 하기
▁수 장
▁토 니
▁정리 한
맞 춤
▁숭 배
▁반 대한
▁다이아 몬드
▁승 리로
▁망 원
▁남 성은
▁발생 했다.
▁꿈 은
▁한 ,
훈련 을
▁따 지면
▁예상 됩니다.

▁명칭 이
▁' 주
▁지휘 관
▁굶 주
▁아픔 을
▁서 쪽으로
▁낙 선
▁보통 은
▁2년 간
▁교육 ,
겠 죠.
▁때문 으로
▁온 전히
▁구멍 을
빈 이
▁발 령
▁많 았던
▁확대 할
▁ 퍽
▁달러 의
▁당국 자는
▁마 왕
w ay
▁2 위를
▁통 하지
7 :
청 ,
▁보 냈다.

▁성 질을
제 이
▁수 산
▁하나 같이
▁디즈 니
ing )
▁측면 을
▁3 %
▁접촉 을
카 이도
▁신 지
파 리
▁특 화
▁무시 하는
▁마 누
▁금 감
▁레 몬
▁헤 비
▁찌 푸
▁도 시에
워 치
▁시 트
▁강 등
▁"정 말
자 였던
▁( B
▁나 가지
▁법 학
▁전통 적으로
인 :
▁생각 해서
되었 으나,
▁자료 

▁부드 럽고
수 화
▁청 나라
C .
▁에 밀
▁무 적
▁고위 급
만 도
ation s
▁괴 로
▁업 로드
연 장
▁음 력
하겠 지만
▁이루어진 다.
▁않았 는데
▁ 홋
▁소 리와
▁들 면,
▁이루 지
▁" 일본
환 은
▁회의 에
▁뜻 이다.

▁최 적의
크 에
▁번 은
▁장 시간
▁질 문이
▁동 쪽으로
▁파 기
▁지 날
▁지속 될
워 즈
▁자 행
▁자랑 한다.
미 노
▁설치 한
▁관 해서
익 은
▁G .
▁끓 여
▁꿰 뚫
▁두꺼 운
버 는
▁불 렀다.

리 니
▁참 된
▁14 5
▁심사 위원
▁극 우
▁하 느냐
▁이론 적
▁접근 할
▁국제 사회의
▁ 훑
▁적용 한
실 점
인데 다
▁번 개
y 

▁ 東
▁전 하고
▁크 라이
er .
▁육 십
▁관심 은
▁드러난 다.
▁분 단
o ot
▁해외 에서
▁급 성
▁아파 트를
▁먹 여
▁즐 겁
▁분 들도
타 카
▁차량 은
▁수용 할
) 까지
▁정 해져
▁국제 적인
질 서
▁드 리고
▁우리나라 가
▁아 즈
▁동생 이
▁브리핑 에서
▁핵심 적인
▁좋 겠다
▁이웅 혁:
자 격
▁실 장은
▁좋아 하지
▁저 승
▁건물 은
▁우리나라 에
▁역 량
▁거 행
▁자 리는
▁일 부분
▁한나라 당의
▁배 분
지 정
▁초반 에는
금 에
▁방 학
▁바 리
▁' 반
▁가 졌다.

▁애 가
▁아르헨티 나
▁날 에
겨 울
▁그래 .
▁백 지
▁규칙 을
변 경
▁전환 을
▁오 죽
▁7 만
발 생
사 적
▁애 널
▁구 형
o 

▁196 4년
▁학 부
▁충실 히
▁싸 이
▁J R
▁도입 한
▁# 맞팔
▁교육 은
▁무 심
▁태양 의
▁받았 고,
▁ 띈
▁손 정
▁깊 숙이
술 의
▁좋 습니다.
▁2 %
명 :
▁있었 는지
▁메 이지
▁장 벽
구 매
농 업
▁날 개를
▁애 들이
▁대 도시
▁넘어 갈
▁혀 를
▁저질 렀
▁지 점에
▁복 종
▁작용 할
금 속
판 ,
▁건설 을
양 ,
▁' 의
▁손해배 상
▁공 약을
▁결론 이
▁즐 기고
▁출 퇴근
▁허 벅
행 사를
▁명의 로
▁단단 한
▁ 릭
▁맞 다.
▁취 지
▁부모 를
▁신 문에
)이 란
▁마 셨
러 시아
▁날 마다
전 지
▁인터넷 에
나 이트
렬 하게
▁남 겼다.
간 접
▁두 렵
7 3
▁수요 를
▁배 는
▁심 포
▁6 회
▁고려 한
▁ 짬
▁충청 북도
▁흔 적을
▁장 제
▁없이 도
▁장난 감
▁흘 려
▁아니 에요.
▁주민 의
장 이나
▁천 지
▁대선 에서
▁0 .3
▁성 리
9 )
명 에서
▁파 스
▁탄 약
▁재 킷
▁진 단을
▁논 평
▁텍 사스
▁정상 회의
▁문 명의
▁최 상의
▁잔 을
▁밤 의
▁아 폴
되 지만,
▁문 자를
▁재 즈
까 ?"

▁장기 적인
▁그때 부터
ev el
F F
▁차 마
▁포 탑
▁한 껏
▁궁극 적으로
▁C ont
▁녀 석은
▁그 쵸
▁레벨 이
▁15 5
비 나
▁메 커니즘
▁정상 화
▁문제 점이
▁선수 

▁대 나무
▁서울 시는
방 과
▁청와 대의
름 한
▁감 기
▁알 을
8 1
▁맞물 려
▁빠 지지
(C h
▁색 다른
글 을
았 으며,
▁신 탁
▁백 만
▁받아들 인
▁준 다는
▁자 택
계 산
곡 으로
▁파 울
▁창 을
▁기록 하는
▁싶어 하는
▁영상 

▁맨 날
/ 4
▁재 래
▁포 용
▁아나운 서
▁순 회
▁식 이
바람 이
▁콤 보
▁크 다는
▁유 능한
못 해
▁하룻 밤
출 산
▁원 서
A .
▁일방 적인
▁평 화의
다 라는
▁고 영
▁놀 고
▁머리카 락
▁더 운
▁국가 정보
▁뜻 의
▁선 의
주 셨
▁횡 단
▁힘 과
▁해당 한다.
▁안 도
▁전문가 들의
린 ,
르 드
▁송 도
▁이 마트
▁종로 구
▁평 생을
줬 다.
▁경 희
▁외교 통상
▁년 에
▁왼 손
▁라 운드
▁전국 에서
파 괴
▁0 3
▁괴 로워
▁쉬 고
▁기초 로
▁이 니
▁15 분
암 이
▁ 팁
토 

S A
▁" 제가
▁흐름 이
라 든가
▁치료 에
겠습니다. "

▁강 성
▁발언 에
예 정
▁상황 .
▁지 구를
▁달라 붙
▁아테 네
▁시리즈 를
▁됐 습니다.

바 ,
▁달 랐다.
제 공
지역 은
▁"그런 데
▁간절 히
연합 회
▁무 능
이었 으며
행 복
▁" 잘
▁우 즈
면 에는
▁오후 에
▁군 부
▁건강 하게
▁섬 에
이다. "

▁컬 렉션
▁결 핍
▁아 부
▁여 우
짓 는
▁메 달
전 력
했 어요.

▁사람 들에
▁왔 다는
▁명백 히
망 에
▁인사 들이
▁핵 무기
▁받 고,
▁학 자
▁쪽 의
▁불편 을
채 로
▁대출 을
▁ 찻
드 름
▁일 정이
▁진 작
▁분 자
▁현실 과
브 레
지역 으로
▁할아버 지는
▁자네 가
▁지나 는
▁죽 으면
▁젖 은
▁제 천
▁모 아서
▁새로 이
어 에서
채 는
강 (
▁L .
▁화 면에
▁개발 하고
▁공 성
▁예 뻐
▁안팎 의
▁' 한국
▁시작 을
▁폭 파
▁영혼 이
한 은
▁무시 할
ing ,
▁시 일
▁구 도
▁변 함
▁열 흘
▁뜨 는
▁세 울
us s
▁잡아 먹
▁상 술
# 먹
바 위
▁이 고
▁키 운
▁ 룬
▁바 라고
( 영
거 지
거 리에
▁키 우고
▁칼 슘
▁펼쳐 진
층 에서
▁신중 하게
▁통합 을
▁새 겨진
▁열 정을
▁발전 과
▁m y
▁" 과
▁폭 력을
▁공 사가
▁글 씨
재 해
근 을
▁In d
다 보면
▁계속 될
▁LG 전자
▁기업 인
달라 "고
▁ 쭈
▁형 님
위원 장의
▁누 르고
▁남 이
▁만났 을
▁1 명이
▁능력 치
▁참조 .
▁내 에서는
▁3 ,000
▁위 함
철 ,
▁연 관이
▁윤 영
▁표현 은
▁신 나게
▁슬 프
( f
^ 2
▁포 지
▁199 6
▁중심 을
▁모 셔
▁김 우
▁지원 에
▁페미니 즘
▁기억 에
▁" 장
▁미 시
▁동 대문
▁동 결
후 를
▁장 차
▁거부 하는
쪽 .
가 요
▁이 뤘
▁양 상
리아 가
▁응 .

▁오 디
▁반 항
▁공급 하는
▁높아 질
경 비
▁명 나라
▁그 럭저럭
▁재 촉
▁격 렬한
사업 은
했 기에
▁사이 즈
▁장 래
▁나오 기도
킹 을
▁도 가
▁쥐 어
▁시절 을
▁가 파
▁이 관
전 에는
▁화 제
▁3 배
▁고 요
▁식 별
▁제한 을
주 었다.

시킨 다는
▁콜라 보
▁숫 자를
화 하여
▁지 쳐
지 법
▁체험 을
발 에
(T he
▁가 설
▁대상 의
▁제 도는
▁역할 에
▁슬 롯
지원 :
▁더 한
파 일
▁있 더라도
▁아 하

▁19 대
▁광 장
▁벌 일
▁어려 웠
▁도 피
▁신 랑
▁# 제
▁7 회
▁김 도
어 ?"

▁말 없이
▁싸 우고
▁ 法
▁안 돼
▁정동 영
▁세 라
▁윤 곽
구 도
ubl ic
▁기념 해
▁제거 하는
중 계
▁부작용 이
▁설 이
▁요구 되는
요 시
결 제
안 고
▁끝 없이
▁박 사가
▁크리스 티
▁ 쟈
죽 을
▁원 소
바이 오
▁올라 갔
▁어마어 마한
국제 공항
▁복 수를
▁선수 로
▁10월 에
▁덜 어
마 리를
▁3 루
▁자외 선
▁정 조
▁입 지를
▁흐 른
u ch
펙 트
▁자 기는
▁정 청
o f
치 즈
▁파 헤
▁깔끔 한
▁정 미
보 병
▁벗 고
▁좁 아
▁일 행을
▁따뜻 하게
란 ,
▁} 

▁빼 면
▁감 각을
▁이 르고
지만 

▁팽 창
▁법 과
▁외국 어
귀 한
▁등 극
포 ,
▁김 부
▁급 락
▁않 으니
성 이나
▁사건 

▁고려 하여
▁들어가 게
▁전설 의
▁있 잖아
▁간 첩
이라고 는
▁살아남 은
▁그래서 인지
학과 

▁국무 부
들 기
▁8 0년대
레스테 롤
▁퍼 즐
▁공유 하는
▁시 ,
코 프
▁소 상공
▁미 주
평 의
▁걸 었다.
▁푸 짐
▁전 하
▁초창 기
▁루 카
▁영역 에서
▁하 사
원 .

요 소
태 는
